{"0": "!", "1": "\"", "2": "#", "3": "$", "4": "%", "5": "&", "6": "'", "7": "(", "8": ")", "9": "*", "10": "+", "11": ",", "12": "-", "13": ".", "14": "/", "15": "0", "16": "1", "17": "2", "18": "3", "19": "4", "20": "5", "21": "6", "22": "7", "23": "8", "24": "9", "25": ":", "26": ";", "27": "<", "28": "=", "29": ">", "30": "?", "31": "@", "32": "A", "33": "B", "34": "C", "35": "D", "36": "E", "37": "F", "38": "G", "39": "H", "40": "I", "41": "J", "42": "K", "43": "L", "44": "M", "45": "N", "46": "O", "47": "P", "48": "Q", "49": "R", "50": "S", "51": "T", "52": "U", "53": "V", "54": "W", "55": "X", "56": "Y", "57": "Z", "58": "[", "59": "\\", "60": "]", "61": "^", "62": "_", "63": "`", "64": "a", "65": "b", "66": "c", "67": "d", "68": "e", "69": "f", "70": "g", "71": "h", "72": "i", "73": "j", "74": "k", "75": "l", "76": "m", "77": "n", "78": "o", "79": "p", "80": "q", "81": "r", "82": "s", "83": "t", "84": "u", "85": "v", "86": "w", "87": "x", "88": "y", "89": "z", "90": "{", "91": "|", "92": "}", "93": "~", "94": "\ufffd", "95": "\ufffd", "96": "\ufffd", "97": "\ufffd", "98": "\ufffd", "99": "\ufffd", "100": "\ufffd", "101": "\ufffd", "102": "\ufffd", "103": "\ufffd", "104": "\ufffd", "105": "\ufffd", "106": "\ufffd", "107": "\ufffd", "108": "\ufffd", "109": "\ufffd", "110": "\ufffd", "111": "\ufffd", "112": "\ufffd", "113": "\ufffd", "114": "\ufffd", "115": "\ufffd", "116": "\ufffd", "117": "\ufffd", "118": "\ufffd", "119": "\ufffd", "120": "\ufffd", "121": "\ufffd", "122": "\ufffd", "123": "\ufffd", "124": "\ufffd", "125": "\ufffd", "126": "\ufffd", "127": "\ufffd", "128": "\ufffd", "129": "\ufffd", "130": "\ufffd", "131": "\ufffd", "132": "\ufffd", "133": "\ufffd", "134": "\ufffd", "135": "\ufffd", "136": "\ufffd", "137": "\ufffd", "138": "\ufffd", "139": "\ufffd", "140": "\ufffd", "141": "\ufffd", "142": "\ufffd", "143": "\ufffd", "144": "\ufffd", "145": "\ufffd", "146": "\ufffd", "147": "\ufffd", "148": "\ufffd", "149": "\ufffd", "150": "\ufffd", "151": "\ufffd", "152": "\ufffd", "153": "\ufffd", "154": "\ufffd", "155": "\ufffd", "156": "\ufffd", "157": "\ufffd", "158": "\ufffd", "159": "\ufffd", "160": "\ufffd", "161": "\ufffd", "162": "\ufffd", "163": "\ufffd", "164": "\ufffd", "165": "\ufffd", "166": "\ufffd", "167": "\ufffd", "168": "\ufffd", "169": "\ufffd", "170": "\ufffd", "171": "\ufffd", "172": "\ufffd", "173": "\ufffd", "174": "\ufffd", "175": "\ufffd", "176": "\ufffd", "177": "\ufffd", "178": "\ufffd", "179": "\ufffd", "180": "\ufffd", "181": "\ufffd", "182": "\ufffd", "183": "\ufffd", "184": "\ufffd", "185": "\ufffd", "186": "\ufffd", "187": "\ufffd", "188": "\u0000", "189": "\u0001", "190": "\u0002", "191": "\u0003", "192": "\u0004", "193": "\u0005", "194": "\u0006", "195": "\u0007", "196": "\b", "197": "\t", "198": "\n", "199": "\u000b", "200": "\f", "201": "\r", "202": "\u000e", "203": "\u000f", "204": "\u0010", "205": "\u0011", "206": "\u0012", "207": "\u0013", "208": "\u0014", "209": "\u0015", "210": "\u0016", "211": "\u0017", "212": "\u0018", "213": "\u0019", "214": "\u001a", "215": "\u001b", "216": "\u001c", "217": "\u001d", "218": "\u001e", "219": "\u001f", "220": " ", "221": "\u007f", "222": "\ufffd", "223": "\ufffd", "224": "\ufffd", "225": "\ufffd", "226": "\ufffd", "227": "\ufffd", "228": "\ufffd", "229": "\ufffd", "230": "\ufffd", "231": "\ufffd", "232": "\ufffd", "233": "\ufffd", "234": "\ufffd", "235": "\ufffd", "236": "\ufffd", "237": "\ufffd", "238": "\ufffd", "239": "\ufffd", "240": "\ufffd", "241": "\ufffd", "242": "\ufffd", "243": "\ufffd", "244": "\ufffd", "245": "\ufffd", "246": "\ufffd", "247": "\ufffd", "248": "\ufffd", "249": "\ufffd", "250": "\ufffd", "251": "\ufffd", "252": "\ufffd", "253": "\ufffd", "254": "\ufffd", "255": "\ufffd", "256": " t", "257": " a", "258": "he", "259": "in", "260": "re", "261": "on", "262": " the", "263": "er", "264": " s", "265": "at", "266": " w", "267": " o", "268": "en", "269": " c", "270": "it", "271": "is", "272": "an", "273": "or", "274": "es", "275": " b", "276": "ed", "277": " f", "278": "ing", "279": " p", "280": "ou", "281": " an", "282": "al", "283": "ar", "284": " to", "285": " m", "286": " of", "287": " in", "288": " d", "289": " h", "290": " and", "291": "ic", "292": "as", "293": "le", "294": " th", "295": "ion", "296": "om", "297": "ll", "298": "ent", "299": " n", "300": " l", "301": "st", "302": " re", "303": "ve", "304": " e", "305": "ro", "306": "ly", "307": " be", "308": " g", "309": " T", "310": "ct", "311": " S", "312": "id", "313": "ot", "314": " I", "315": "ut", "316": "et", "317": " A", "318": " is", "319": " on", "320": "im", "321": "am", "322": "ow", "323": "ay", "324": "ad", "325": "se", "326": " that", "327": " C", "328": "ig", "329": " for", "330": "ac", "331": " y", "332": "ver", "333": "ur", "334": " u", "335": "ld", "336": " st", "337": " M", "338": "'s", "339": " he", "340": " it", "341": "ation", "342": "ith", "343": "ir", "344": "ce", "345": " you", "346": "il", "347": " B", "348": " wh", "349": "ol", "350": " P", "351": " with", "352": " 1", "353": "ter", "354": "ch", "355": " as", "356": " we", "357": " (", "358": "nd", "359": "ill", "360": " D", "361": "if", "362": " 2", "363": "ag", "364": "ers", "365": "ke", "366": " \"", "367": " H", "368": "em", "369": " con", "370": " W", "371": " R", "372": "her", "373": " was", "374": " r", "375": "od", "376": " F", "377": "ul", "378": "ate", "379": " at", "380": "ri", "381": "pp", "382": "ore", "383": " The", "384": " se", "385": "us", "386": " pro", "387": " ha", "388": "um", "389": " are", "390": " de", "391": "ain", "392": "and", "393": " or", "394": "igh", "395": "est", "396": "ist", "397": "ab", "398": "rom", "399": " N", "400": "th", "401": " com", "402": " G", "403": "un", "404": "op", "405": "00", "406": " L", "407": " not", "408": "ess", "409": " ex", "410": " v", "411": "res", "412": " E", "413": "ew", "414": "ity", "415": "ant", "416": " by", "417": "el", "418": "os", "419": "ort", "420": "oc", "421": "qu", "422": " from", "423": " have", "424": " su", "425": "ive", "426": "ould", "427": " sh", "428": " this", "429": "nt", "430": "ra", "431": "pe", "432": "ight", "433": "art", "434": "ment", "435": " al", "436": "ust", "437": "end", "438": "--", "439": "all", "440": " O", "441": "ack", "442": " ch", "443": " le", "444": "ies", "445": "red", "446": "ard", "447": "\ufffd", "448": "out", "449": " J", "450": " ab", "451": "ear", "452": "iv", "453": "ally", "454": "our", "455": "ost", "456": "gh", "457": "pt", "458": " pl", "459": "ast", "460": " can", "461": "ak", "462": "ome", "463": "ud", "464": "The", "465": " his", "466": " do", "467": " go", "468": " has", "469": "ge", "470": "'t", "471": " U", "472": "rou", "473": " sa", "474": " j", "475": " but", "476": " wor", "477": " all", "478": "ect", "479": " k", "480": "ame", "481": " will", "482": "ok", "483": " whe", "484": " they", "485": "ide", "486": "01", "487": "ff", "488": "ich", "489": "pl", "490": "ther", "491": " tr", "492": "..", "493": " int", "494": "ie", "495": "ure", "496": "age", "497": " ne", "498": "ial", "499": "ap", "500": "ine", "501": "ice", "502": " me", "503": " out", "504": "ans", "505": "one", "506": "ong", "507": "ions", "508": " who", "509": " K", "510": " up", "511": " their", "512": " ad", "513": " 3", "514": " us", "515": "ated", "516": "ous", "517": " more", "518": "ue", "519": "og", "520": " St", "521": "ind", "522": "ike", "523": " so", "524": "ime", "525": "per", "526": ".\"", "527": "ber", "528": "iz", "529": "act", "530": " one", "531": " said", "532": " -", "533": "are", "534": " your", "535": "cc", "536": " Th", "537": " cl", "538": "ep", "539": "ake", "540": "able", "541": "ip", "542": " cont", "543": " which", "544": "ia", "545": " im", "546": " about", "547": " were", "548": "very", "549": "ub", "550": " had", "551": " en", "552": " comp", "553": ",\"", "554": " In", "555": " un", "556": " ag", "557": "ire", "558": "ace", "559": "au", "560": "ary", "561": " would", "562": "ass", "563": "ry", "564": " \ufffd", "565": "cl", "566": "ook", "567": "ere", "568": "so", "569": " V", "570": "ign", "571": "ib", "572": " off", "573": " te", "574": "ven", "575": " Y", "576": "ile", "577": "ose", "578": "ite", "579": "orm", "580": " 201", "581": " res", "582": " man", "583": " per", "584": " other", "585": "ord", "586": "ult", "587": " been", "588": " like", "589": "ase", "590": "ance", "591": "ks", "592": "ays", "593": "own", "594": "ence", "595": " dis", "596": "ction", "597": " any", "598": " app", "599": " sp", "600": "int", "601": "ress", "602": "ations", "603": "ail", "604": " 4", "605": "ical", "606": " them", "607": " her", "608": "ount", "609": " Ch", "610": " ar", "611": " if", "612": " there", "613": " pe", "614": " year", "615": "av", "616": " my", "617": " some", "618": " when", "619": "ough", "620": "ach", "621": " than", "622": "ru", "623": "ond", "624": "ick", "625": " over", "626": "vel", "627": " qu", "628": "\n\n", "629": " sc", "630": "reat", "631": "ree", "632": " It", "633": "ound", "634": "port", "635": " also", "636": " part", "637": "fter", "638": " kn", "639": " bec", "640": " time", "641": "ens", "642": " 5", "643": "ople", "644": " what", "645": " no", "646": "du", "647": "mer", "648": "ang", "649": " new", "650": "----", "651": " get", "652": "ory", "653": "ition", "654": "ings", "655": " just", "656": " into", "657": " 0", "658": "ents", "659": "ove", "660": "te", "661": " people", "662": " pre", "663": " its", "664": " rec", "665": " tw", "666": "ian", "667": "irst", "668": "ark", "669": "ors", "670": " work", "671": "ade", "672": "ob", "673": " she", "674": " our", "675": "wn", "676": "ink", "677": "lic", "678": " 19", "679": " He", "680": "ish", "681": "nder", "682": "ause", "683": " him", "684": "ons", "685": " [", "686": " ro", "687": "form", "688": "ild", "689": "ates", "690": "vers", "691": " only", "692": "oll", "693": " spe", "694": "ck", "695": "ell", "696": "amp", "697": " acc", "698": " bl", "699": "ious", "700": "urn", "701": "ft", "702": "ood", "703": " how", "704": "hed", "705": " '", "706": " after", "707": "aw", "708": " att", "709": "ov", "710": "ne", "711": " play", "712": "erv", "713": "ict", "714": " could", "715": "itt", "716": " am", "717": " first", "718": " 6", "719": " act", "720": " $", "721": "ec", "722": "hing", "723": "ual", "724": "ull", "725": " comm", "726": "oy", "727": "old", "728": "ces", "729": "ater", "730": " fe", "731": " bet", "732": "we", "733": "iff", "734": " two", "735": "ock", "736": " back", "737": ").", "738": "ident", "739": " under", "740": "rough", "741": "sel", "742": "xt", "743": " may", "744": "round", "745": " po", "746": "ph", "747": "iss", "748": " des", "749": " most", "750": " did", "751": " add", "752": "ject", "753": " inc", "754": "fore", "755": " pol", "756": "ont", "757": " again", "758": "clud", "759": "tern", "760": " know", "761": " need", "762": " cons", "763": " co", "764": " .", "765": " want", "766": " see", "767": " 7", "768": "ning", "769": "iew", "770": " This", "771": "ced", "772": " even", "773": " ind", "774": "ty", "775": " We", "776": "ath", "777": " these", "778": " pr", "779": " use", "780": " because", "781": " fl", "782": "ng", "783": " now", "784": " \u2013", "785": "com", "786": "ise", "787": " make", "788": " then", "789": "ower", "790": " every", "791": " Un", "792": " sec", "793": "oss", "794": "uch", "795": " em", "796": " =", "797": " Re", "798": "ied", "799": "rit", "800": " inv", "801": "lect", "802": " supp", "803": "ating", "804": " look", "805": "man", "806": "pect", "807": " 8", "808": "row", "809": " bu", "810": " where", "811": "ific", "812": " years", "813": "ily", "814": " diff", "815": " should", "816": " rem", "817": "Th", "818": "In", "819": " ev", "820": "day", "821": "'re", "822": "rib", "823": " rel", "824": "ss", "825": " def", "826": " right", "827": " sy", "828": "),", "829": "les", "830": "000", "831": "hen", "832": " through", "833": " Tr", "834": "__", "835": " way", "836": " don", "837": " ,", "838": " 10", "839": "ased", "840": " ass", "841": "ublic", "842": " reg", "843": " And", "844": "ix", "845": " very", "846": " includ", "847": "other", "848": " imp", "849": "oth", "850": " sub", "851": " \u2014", "852": " being", "853": "arg", "854": " Wh", "855": "==", "856": "ible", "857": " does", "858": "ange", "859": "ram", "860": " 9", "861": "ert", "862": "ps", "863": "ited", "864": "ational", "865": " br", "866": " down", "867": " many", "868": "aking", "869": " call", "870": "uring", "871": "ities", "872": " ph", "873": "ics", "874": "als", "875": " dec", "876": "ative", "877": "ener", "878": " before", "879": "ility", "880": " well", "881": " much", "882": "erson", "883": " those", "884": " such", "885": " ke", "886": " end", "887": " But", "888": "ason", "889": "ting", "890": " long", "891": "ef", "892": " think", "893": "ys", "894": " bel", "895": " sm", "896": "its", "897": "ax", "898": " own", "899": " prov", "900": " set", "901": "ife", "902": "ments", "903": "ble", "904": "ward", "905": " show", "906": " pres", "907": "ms", "908": "omet", "909": " ob", "910": " say", "911": " Sh", "912": "ts", "913": "ful", "914": " eff", "915": " gu", "916": " inst", "917": "und", "918": "ren", "919": "cess", "920": " ent", "921": " You", "922": " good", "923": " start", "924": "ince", "925": " made", "926": "tt", "927": "stem", "928": "olog", "929": "up", "930": " |", "931": "ump", "932": " hel", "933": "vern", "934": "ular", "935": "ually", "936": " ac", "937": " mon", "938": " last", "939": " 200", "940": "10", "941": " stud", "942": "ures", "943": " Ar", "944": "self", "945": "ars", "946": "meric", "947": "ues", "948": "cy", "949": " min", "950": "ollow", "951": " col", "952": "io", "953": " mod", "954": " count", "955": " Com", "956": "hes", "957": " fin", "958": "air", "959": "ier", "960": "\u2014", "961": "read", "962": "ank", "963": "atch", "964": "ever", "965": " str", "966": " point", "967": "ork", "968": " New", "969": " sur", "970": "ool", "971": "alk", "972": "ement", "973": " used", "974": "ract", "975": "ween", "976": " same", "977": "oun", "978": " Al", "979": "ci", "980": " differe", "981": " while", "982": "--------", "983": " game", "984": "cept", "985": " sim", "986": "...", "987": " inter", "988": "ek", "989": " report", "990": " produ", "991": " still", "992": "led", "993": "ah", "994": " here", "995": " world", "996": " though", "997": " num", "998": "arch", "999": "imes", "1000": "ale", "1001": " Se", "1002": " If", "1003": "//", "1004": " Le", "1005": " ret", "1006": " ref", "1007": " trans", "1008": "ner", "1009": "ution", "1010": "ters", "1011": " take", "1012": " Cl", "1013": " conf", "1014": "way", "1015": "ave", "1016": " going", "1017": " sl", "1018": "ug", "1019": " Americ", "1020": " spec", "1021": " hand", "1022": " between", "1023": "ists", "1024": " De", "1025": "oot", "1026": "It", "1027": " ear", "1028": " against", "1029": " high", "1030": "gan", "1031": "az", "1032": "ather", "1033": " exp", "1034": " op", "1035": " ins", "1036": " gr", "1037": " help", "1038": " requ", "1039": "ets", "1040": "ins", "1041": " Pro", "1042": "ism", "1043": " found", "1044": "land", "1045": "ata", "1046": "uss", "1047": "ames", "1048": " person", "1049": " great", "1050": "pr", "1051": " sign", "1052": " An", "1053": "'ve", "1054": " somet", "1055": " ser", "1056": "hip", "1057": " run", "1058": " :", "1059": " ter", "1060": "irect", "1061": " follow", "1062": " det", "1063": "ices", "1064": " find", "1065": "12", "1066": " mem", "1067": " cr", "1068": "ered", "1069": "ex", "1070": " ext", "1071": "uth", "1072": "ense", "1073": "co", "1074": " team", "1075": "ving", "1076": "ouse", "1077": "ash", "1078": "att", "1079": "ved", "1080": " system", "1081": " As", "1082": "der", "1083": "ives", "1084": "min", "1085": " lead", "1086": " Bl", "1087": "cent", "1088": " around", "1089": " govern", "1090": " cur", "1091": "velop", "1092": "any", "1093": " cour", "1094": "alth", "1095": "ages", "1096": "ize", "1097": " car", "1098": "ode", "1099": " law", "1100": " read", "1101": "'m", "1102": "con", "1103": " real", "1104": " support", "1105": " 12", "1106": "....", "1107": " really", "1108": "ness", "1109": " fact", "1110": " day", "1111": " both", "1112": "ying", "1113": " serv", "1114": " For", "1115": " three", "1116": " wom", "1117": " med", "1118": "ody", "1119": " They", "1120": "50", "1121": " exper", "1122": "ton", "1123": " each", "1124": "akes", "1125": " che", "1126": " cre", "1127": "ines", "1128": " rep", "1129": "19", "1130": "gg", "1131": "illion", "1132": " grou", "1133": "ute", "1134": "ik", "1135": "We", "1136": "get", "1137": "ER", "1138": " met", "1139": " says", "1140": "ox", "1141": " during", "1142": "ern", "1143": "ized", "1144": "ared", "1145": " fam", "1146": "ically", "1147": " happ", "1148": " Is", "1149": " char", "1150": "med", "1151": "vent", "1152": " gener", "1153": "ient", "1154": "ple", "1155": "iet", "1156": "rent", "1157": "11", "1158": "ves", "1159": "ption", "1160": " 20", "1161": "formation", "1162": " cor", "1163": " offic", "1164": "ield", "1165": " too", "1166": "ision", "1167": " inf", "1168": " Z", "1169": "the", "1170": "oad", "1171": " public", "1172": " prog", "1173": "ric", "1174": "**", "1175": " war", "1176": " power", "1177": "view", "1178": " few", "1179": " loc", "1180": " different", "1181": " state", "1182": " head", "1183": "'ll", "1184": " poss", "1185": " stat", "1186": "ret", "1187": "ants", "1188": " val", "1189": " iss", "1190": " cle", "1191": "ivers", "1192": "anc", "1193": " expl", "1194": " another", "1195": " Q", "1196": " av", "1197": "thing", "1198": "nce", "1199": "Wh", "1200": " child", "1201": " since", "1202": "ired", "1203": "less", "1204": " life", "1205": " develop", "1206": "ittle", "1207": " dep", "1208": " pass", "1209": "\ufffd", "1210": " turn", "1211": "orn", "1212": "This", "1213": "bers", "1214": "ross", "1215": " Ad", "1216": " fr", "1217": " resp", "1218": " second", "1219": "oh", "1220": " /", "1221": " disc", "1222": " &", "1223": " something", "1224": " comple", "1225": " ed", "1226": " fil", "1227": " month", "1228": "aj", "1229": "uc", "1230": " government", "1231": " without", "1232": " leg", "1233": " dist", "1234": " put", "1235": " quest", "1236": "ann", "1237": " prot", "1238": "20", "1239": " never", "1240": "ience", "1241": " level", "1242": " art", "1243": " things", "1244": " might", "1245": " effect", "1246": " contro", "1247": " cent", "1248": " 18", "1249": " allow", "1250": " belie", "1251": "chool", "1252": "ott", "1253": " incre", "1254": " feel", "1255": " result", "1256": " lot", "1257": " fun", "1258": "ote", "1259": " ty", "1260": "erest", "1261": " contin", "1262": " using", "1263": " big", "1264": "201", "1265": " ask", "1266": " best", "1267": " )", "1268": "IN", "1269": " opp", "1270": "30", "1271": " number", "1272": "iness", "1273": "St", "1274": "lease", "1275": " ca", "1276": " must", "1277": " direct", "1278": " gl", "1279": " <", "1280": " open", "1281": " post", "1282": " come", "1283": " seem", "1284": "ording", "1285": " week", "1286": "ately", "1287": "ital", "1288": " el", "1289": "riend", "1290": " far", "1291": " tra", "1292": "inal", "1293": " pri", "1294": " US", "1295": " place", "1296": " form", "1297": " told", "1298": "\":", "1299": "ains", "1300": "ature", "1301": " Trump", "1302": " stand", "1303": " #", "1304": "ider", "1305": " Fr", "1306": " next", "1307": " soc", "1308": " pur", "1309": " let", "1310": " little", "1311": " hum", "1312": " i", "1313": "ron", "1314": "15", "1315": " 15", "1316": " commun", "1317": " mark", "1318": " There", "1319": " wr", "1320": " That", "1321": " information", "1322": "ways", "1323": " bus", "1324": "app", "1325": " invest", "1326": "me", "1327": " hard", "1328": "ained", "1329": "ead", "1330": " import", "1331": " appro", "1332": " test", "1333": " tri", "1334": " rest", "1335": "osed", "1336": " full", "1337": " care", "1338": " Sp", "1339": " case", "1340": "ON", "1341": " sk", "1342": " less", "1343": " +", "1344": " partic", "1345": " Pl", "1346": "ably", "1347": "uck", "1348": "ished", "1349": "chn", "1350": "be", "1351": " list", "1352": "ator", "1353": " top", "1354": " adv", "1355": " Be", "1356": "ruct", "1357": " dem", "1358": "ration", "1359": "ling", "1360": "gy", "1361": "reen", "1362": "ger", "1363": " home", "1364": " left", "1365": " better", "1366": " data", "1367": " 11", "1368": " attack", "1369": " proble", "1370": "line", "1371": "ards", "1372": " beh", "1373": "ral", "1374": " How", "1375": " She", "1376": "arge", "1377": " --", "1378": "://", "1379": " bro", "1380": " Ph", "1381": "ats", "1382": " build", "1383": "ww", "1384": "ided", "1385": "aim", "1386": "ases", "1387": "ency", "1388": " main", "1389": "ined", "1390": " including", "1391": " {", "1392": " got", "1393": " interest", "1394": " keep", "1395": " X", "1396": " eas", "1397": "aining", "1398": " class", "1399": "\u2026", "1400": " No", "1401": " var", "1402": " small", "1403": "ample", "1404": "AT", "1405": " ide", "1406": " So", "1407": " rece", "1408": " polit", "1409": " mov", "1410": " plan", "1411": " percent", "1412": "iving", "1413": " camp", "1414": " pay", "1415": "14", "1416": "sc", "1417": "ised", "1418": " unt", "1419": "oney", "1420": "ploy", "1421": "====", "1422": " didn", "1423": " Ind", "1424": "els", "1425": "ertain", "1426": " pos", "1427": "____", "1428": "iver", "1429": " process", "1430": " program", "1431": "ified", "1432": " Rep", "1433": "16", "1434": "uro", "1435": "ology", "1436": "atter", "1437": "ina", "1438": " name", "1439": " All", "1440": " four", "1441": " return", "1442": "vious", "1443": "bs", "1444": " called", "1445": " move", "1446": " Sc", "1447": "ird", "1448": " group", "1449": " bre", "1450": " men", "1451": " cap", "1452": "ten", "1453": "ee", "1454": " dri", "1455": "leg", "1456": "here", "1457": "uthor", "1458": " pat", "1459": " current", "1460": "ides", "1461": " pop", "1462": "to", "1463": "ention", "1464": " always", "1465": " mil", "1466": " women", "1467": " 16", "1468": " old", "1469": "iven", "1470": "raph", "1471": " Or", "1472": "ror", "1473": "ently", "1474": " near", "1475": " Ex", "1476": "ream", "1477": "sh", "1478": " 14", "1479": " free", "1480": "ission", "1481": "stand", "1482": " Con", "1483": "ality", "1484": "used", "1485": "13", "1486": " design", "1487": " change", "1488": " chang", "1489": " bo", "1490": " vis", "1491": "ember", "1492": " book", "1493": "ready", "1494": " kill", "1495": "25", "1496": "pped", "1497": " away", "1498": " able", "1499": " country", "1500": " const", "1501": "arn", "1502": " order", "1503": "AR", "1504": "ior", "1505": "ium", "1506": "orth", "1507": "18", "1508": "ailable", "1509": " sw", "1510": " million", "1511": " 13", "1512": "atic", "1513": "ted", "1514": " Go", "1515": " oper", "1516": "eng", "1517": " thing", "1518": "ajor", "1519": "conom", "1520": " Comm", "1521": " why", "1522": "ured", "1523": "ural", "1524": " school", "1525": "by", "1526": " Mar", "1527": " aff", "1528": " days", "1529": " ann", "1530": "ush", "1531": "ane", "1532": "If", "1533": "eg", "1534": " prof", "1535": " health", "1536": "outh", "1537": "But", "1538": "ional", "1539": ".,", "1540": " sol", "1541": " already", "1542": " 30", "1543": " charact", "1544": "He", "1545": " friend", "1546": "ES", "1547": "ians", "1548": "icle", "1549": "'d", "1550": " On", "1551": " least", "1552": " prom", "1553": " dr", "1554": " hist", "1555": "ither", "1556": " est", "1557": "iqu", "1558": "17", "1559": "son", "1560": " tell", "1561": " talk", "1562": "ohn", "1563": "oint", "1564": "lection", "1565": "AN", "1566": " until", "1567": "augh", "1568": " later", "1569": " ve", "1570": " view", "1571": "ending", "1572": "ived", "1573": " word", "1574": "ware", "1575": " cost", "1576": " enough", "1577": " give", "1578": " United", "1579": " techn", "1580": "arent", "1581": "OR", "1582": " par", "1583": " Dr", "1584": " 2016", "1585": "rist", "1586": "ering", "1587": " \ufffd", "1588": " large", "1589": "side", "1590": "acy", "1591": "ccess", "1592": " win", "1593": " important", "1594": " 199", "1595": " doesn", "1596": " 17", "1597": " business", "1598": " clear", "1599": " rese", "1600": "\",", "1601": "ury", "1602": " equ", "1603": "aster", "1604": "alf", "1605": " American", "1606": "nect", "1607": " expect", "1608": "iversity", "1609": " occ", "1610": " Fl", "1611": " kind", "1612": " mean", "1613": " past", "1614": " dev", "1615": " bas", "1616": "let", "1617": "raft", "1618": " organ", "1619": " del", "1620": " perform", "1621": " story", "1622": " season", "1623": " Col", "1624": " claim", "1625": " came", "1626": " within", "1627": " line", "1628": " project", "1629": " At", "1630": " control", "1631": "ended", "1632": " Sy", "1633": " air", "1634": "ization", "1635": " *", "1636": "ley", "1637": " money", "1638": "idd", "1639": "You", "1640": "for", "1641": " family", "1642": " making", "1643": " bit", "1644": " police", "1645": " happen", "1646": " vers", "1647": "ony", "1648": "uff", "1649": " When", "1650": " sit", "1651": "ideo", "1652": "lf", "1653": "ison", "1654": " sure", "1655": "gin", "1656": " appear", "1657": " light", "1658": " es", "1659": "of", "1660": " water", "1661": " times", "1662": "not", "1663": " grow", "1664": " company", "1665": " Te", "1666": "ows", "1667": " mar", "1668": "ource", "1669": "iol", "1670": "arm", "1671": "br", "1672": " example", "1673": " conc", "1674": " fore", "1675": " To", "1676": "pro", "1677": "EN", "1678": "ries", "1679": " 25", "1680": " Can", "1681": "ney", "1682": " actually", "1683": " ever", "1684": "urity", "1685": "aken", "1686": "aps", "1687": " tax", "1688": " major", "1689": "ama", "1690": " often", "1691": "eral", "1692": " human", "1693": " job", "1694": "ister", "1695": " available", "1696": "ocr", "1697": "enn", "1698": "aid", "1699": "ivid", "1700": " record", "1701": "?\"", "1702": " sing", "1703": " Am", "1704": "idence", "1705": " news", "1706": "ster", "1707": " econom", "1708": " following", "1709": " Br", "1710": "ising", "1711": " hour", "1712": "most", "1713": "ument", "1714": " sex", "1715": " desc", "1716": " become", "1717": " Ed", "1718": " took", "1719": " having", "1720": " product", "1721": "ault", "1722": "As", "1723": "aring", "1724": " means", "1725": " hop", "1726": "une", "1727": " cho", "1728": " certain", "1729": " non", "1730": " deal", "1731": "24", "1732": "lement", "1733": "oci", "1734": "ene", "1735": " side", "1736": " Pr", "1737": " May", "1738": " reason", "1739": "ued", "1740": "ched", "1741": "ulation", "1742": " elect", "1743": " official", "1744": " possible", "1745": " hold", "1746": "ands", "1747": "ots", "1748": " city", "1749": "ories", "1750": " sever", "1751": " children", "1752": " once", "1753": " activ", "1754": "ler", "1755": " night", "1756": "itions", "1757": " John", "1758": "ape", "1759": "play", "1760": " done", "1761": " lim", "1762": " working", "1763": " Pres", "1764": "orld", "1765": "eb", "1766": " Co", "1767": " body", "1768": "ails", "1769": "utes", "1770": " Mr", "1771": " whether", "1772": " author", "1773": "rop", "1774": " proper", "1775": " seen", "1776": ");", "1777": " fac", "1778": " Su", "1779": " cond", "1780": "iting", "1781": " course", "1782": " }", "1783": "----------------", "1784": "aign", "1785": " event", "1786": " eng", "1787": " pot", "1788": " intern", "1789": "iam", "1790": " short", "1791": "empt", "1792": "\ufffd", "1793": " God", "1794": "ilar", "1795": "80", "1796": " orig", "1797": "IS", "1798": "ourn", "1799": "ability", "1800": "itive", "1801": " dam", "1802": " 100", "1803": " press", "1804": " doing", "1805": " protect", "1806": "ring", "1807": " thought", "1808": " question", "1809": "rew", "1810": " War", "1811": " several", "1812": " State", "1813": " given", "1814": " fund", "1815": " Tw", "1816": " went", "1817": "ances", "1818": "work", "1819": "por", "1820": "my", "1821": "40", "1822": " arg", "1823": "artment", "1824": "ustom", "1825": " polic", "1826": " meet", "1827": " creat", "1828": "22", "1829": " States", "1830": " games", "1831": "raw", "1832": "uture", "1833": " understand", "1834": "urs", "1835": " Ob", "1836": "lish", "1837": "sy", "1838": " makes", "1839": " won", "1840": "agon", "1841": " htt", "1842": " love", "1843": "ential", "1844": " complete", "1845": "par", "1846": " Im", "1847": "AL", "1848": " account", "1849": "\u00a0", "1850": "ored", "1851": "vert", "1852": " ident", "1853": " 2015", "1854": " others", "1855": " Min", "1856": "iber", "1857": "verage", "1858": "There", "1859": "itional", "1860": "dd", "1861": " prob", "1862": " young", "1863": " along", "1864": " according", "1865": " yet", "1866": " members", "1867": " What", "1868": "oid", "1869": " Man", "1870": "And", "1871": " among", "1872": "ai", "1873": " employ", "1874": " Res", "1875": " >", "1876": " invol", "1877": " low", "1878": "af", "1879": " Car", "1880": " hig", "1881": " One", "1882": " Sec", "1883": "ination", "1884": " likely", "1885": " ant", "1886": "aged", "1887": " Russ", "1888": " ben", "1889": " rele", "1890": "For", "1891": "back", "1892": " Not", "1893": " president", "1894": "ball", "1895": " access", "1896": "ividual", "1897": " Dem", "1898": " Euro", "1899": "60", "1900": " known", "1901": "irl", "1902": " Gr", "1903": " early", "1904": "use", "1905": "iety", "1906": "\u2013", "1907": " fight", "1908": " sent", "1909": " today", "1910": " market", "1911": "\".", "1912": " based", "1913": " strong", "1914": "urther", "1915": " deb", "1916": "mber", "1917": " problem", "1918": " death", "1919": " social", "1920": "imate", "1921": "AS", "1922": "ortun", "1923": " campaign", "1924": "ery", "1925": "Ch", "1926": " ey", "1927": "ially", "1928": " mus", "1929": "wh", "1930": "pos", "1931": " er", "1932": " saf", "1933": " months", "1934": "iron", "1935": " viol", "1936": " five", "1937": " stre", "1938": " players", "1939": "inc", "1940": "ald", "1941": "year", "1942": "aun", "1943": " success", "1944": " present", "1945": "erence", "1946": " 2014", "1947": " sugg", "1948": " particular", "1949": " try", "1950": " suggest", "1951": " Christ", "1952": "ones", "1953": " priv", "1954": "23", "1955": " crit", "1956": " land", "1957": " local", "1958": "ify", "1959": "29", "1960": " aut", "1961": "ED", "1962": " Gu", "1963": " mult", "1964": " political", "1965": " asked", "1966": " former", "1967": "itter", "1968": "ript", "1969": " close", "1970": " pract", "1971": " York", "1972": " getting", "1973": " across", "1974": " comb", "1975": " believe", "1976": " z", "1977": " toget", "1978": " together", "1979": " Cent", "1980": "irc", "1981": " individual", "1982": " Mc", "1983": "27", "1984": "isk", "1985": " Eng", "1986": " face", "1987": " 24", "1988": " value", "1989": " area", "1990": "ev", "1991": " writ", "1992": " President", "1993": " vot", "1994": " key", "1995": " mom", "1996": "put", "1997": " anything", "1998": " experience", "1999": "attle", "2000": " mind", "2001": "aff", "2002": "omm", "2003": " future", "2004": "ged", "2005": " cut", "2006": " tot", "2007": "itch", "2008": " video", "2009": " investig", "2010": " net", "2011": " My", "2012": "rict", "2013": "ien", "2014": ".)", "2015": " impro", "2016": "though", "2017": "wards", "2018": " connect", "2019": " Med", "2020": "selves", "2021": "ensive", "2022": "mb", "2023": "ober", "2024": "ators", "2025": "An", "2026": " 50", "2027": " redu", "2028": "resent", "2029": " above", "2030": " fre", "2031": " Europe", "2032": "sw", "2033": " amount", "2034": " App", "2035": " either", "2036": " milit", "2037": " anal", "2038": " fail", "2039": " En", "2040": "ales", "2041": " special", "2042": " black", "2043": "IT", "2044": "cher", "2045": " looking", "2046": " fire", "2047": "yn", "2048": " almost", "2049": "oon", "2050": " study", "2051": " miss", "2052": "ches", "2053": "rown", "2054": " tre", "2055": " community", "2056": " media", "2057": " food", "2058": " comes", "2059": " University", "2060": " single", "2061": "What", "2062": "uly", "2063": " half", "2064": "ague", "2065": "hod", "2066": " Republic", "2067": " started", "2068": " quick", "2069": "oto", "2070": "book", "2071": " issue", "2072": "itor", "2073": " else", "2074": " consider", "2075": "26", "2076": "rodu", "2077": " taken", "2078": "28", "2079": "99", "2080": " With", "2081": " true", "2082": " wa", "2083": " trad", "2084": " ago", "2085": " mess", "2086": "ief", "2087": " added", "2088": "oke", "2089": " bad", "2090": " fav", "2091": "33", "2092": " similar", "2093": "ask", "2094": " Don", "2095": " character", "2096": "orts", "2097": " House", "2098": " reported", "2099": " type", "2100": "val", "2101": "iod", "2102": " However", "2103": " targ", "2104": " entire", "2105": "pping", "2106": " history", "2107": " live", "2108": "ffic", "2109": "........", "2110": "ederal", "2111": " trying", "2112": " discuss", "2113": " Har", "2114": "aces", "2115": "lished", "2116": " self", "2117": "osp", "2118": "rest", "2119": " room", "2120": "elt", "2121": " fall", "2122": "olution", "2123": " et", "2124": " x", "2125": " isn", "2126": " idea", "2127": "bo", "2128": " sound", "2129": " Dep", "2130": " someone", "2131": "cially", "2132": "ully", "2133": " foc", "2134": " object", "2135": "ift", "2136": "aper", "2137": " player", "2138": " rather", "2139": " service", "2140": "ashing", "2141": " Do", "2142": " Part", "2143": "rug", "2144": "mon", "2145": "ply", "2146": " mor", "2147": " nothing", "2148": " provide", "2149": "IC", "2150": "ung", "2151": " party", "2152": " exist", "2153": " mag", "2154": "70", "2155": " rul", "2156": " house", "2157": " behind", "2158": " however", "2159": " World", "2160": " sum", "2161": " applic", "2162": " ;", "2163": " function", "2164": "gr", "2165": " Pol", "2166": " front", "2167": "200", "2168": " series", "2169": " tem", "2170": " typ", "2171": "ills", "2172": " opt", "2173": " points", "2174": " below", "2175": "itted", "2176": " specific", "2177": " 2017", "2178": "umb", "2179": " ra", "2180": " previous", "2181": " pret", "2182": "reme", "2183": " custom", "2184": " court", "2185": " Me", "2186": " repl", "2187": " whole", "2188": "go", "2189": "cer", "2190": " treat", "2191": " Act", "2192": " probably", "2193": " learn", "2194": "ender", "2195": " Ass", "2196": " version", "2197": "now", "2198": " check", "2199": " Cal", "2200": "RE", "2201": "minist", "2202": "On", "2203": "ources", "2204": " benef", "2205": " doc", "2206": " deter", "2207": " enc", "2208": " super", "2209": " address", "2210": " vict", "2211": " 2013", "2212": " meas", "2213": "tr", "2214": " field", "2215": "When", "2216": " signific", "2217": "uge", "2218": " feat", "2219": " common", "2220": "load", "2221": " begin", "2222": " bring", "2223": " action", "2224": "erman", "2225": " describ", "2226": " indust", "2227": " wanted", "2228": "ried", "2229": "ming", "2230": " attempt", "2231": "45", "2232": "fer", "2233": " due", "2234": "ression", "2235": "##", "2236": " shall", "2237": " six", "2238": "oo", "2239": " step", "2240": " pub", "2241": " himself", "2242": " 23", "2243": " cop", "2244": " dest", "2245": " stop", "2246": "AC", "2247": "ibility", "2248": " lab", "2249": "icult", "2250": " hours", "2251": " create", "2252": " further", "2253": " America", "2254": " City", "2255": " dou", "2256": "head", "2257": "ST", "2258": " North", "2259": "cing", "2260": " national", "2261": "ule", "2262": " Inst", "2263": " taking", "2264": " Qu", "2265": "irt", "2266": " red", "2267": " research", "2268": "viron", "2269": " Ge", "2270": " break", "2271": "ana", "2272": " space", "2273": "aterial", "2274": " recent", "2275": " Ab", "2276": " general", "2277": " hit", "2278": " period", "2279": " everything", "2280": "ively", "2281": " phys", "2282": " saying", "2283": "anks", "2284": " cou", "2285": " cult", "2286": "aced", "2287": "eal", "2288": "uation", "2289": " coun", "2290": "lu", "2291": " include", "2292": " position", "2293": " After", "2294": " Canad", "2295": " Em", "2296": " imm", "2297": " Red", "2298": " pick", "2299": " compl", "2300": " matter", "2301": "reg", "2302": "ext", "2303": "angu", "2304": "isc", "2305": "ole", "2306": "aut", "2307": " compet", "2308": "eed", "2309": "fect", "2310": " 21", "2311": " Sen", "2312": " These", "2313": "asing", "2314": " cannot", "2315": " init", "2316": " relations", "2317": "ached", "2318": " bar", "2319": " 40", "2320": " TH", "2321": " 2012", "2322": " vol", "2323": " ground", "2324": " security", "2325": " upd", "2326": "ilt", "2327": "35", "2328": " concern", "2329": " Just", "2330": " white", "2331": " seems", "2332": " Her", "2333": "pecially", "2334": "ients", "2335": " announ", "2336": " fig", "2337": "ights", "2338": " stri", "2339": "like", "2340": "ids", "2341": " sus", "2342": " watch", "2343": " \ufffd", "2344": " wind", "2345": " Cont", "2346": " itself", "2347": " mass", "2348": "Al", "2349": "yle", "2350": "ique", "2351": " National", "2352": " abs", "2353": " pack", "2354": " outside", "2355": " anim", "2356": " pain", "2357": "eter", "2358": " manag", "2359": "duct", "2360": "ogn", "2361": " ]", "2362": " Sept", "2363": "sec", "2364": "off", "2365": " Jan", "2366": " foot", "2367": "ades", "2368": " third", "2369": " mot", "2370": " evidence", "2371": "inton", "2372": " threat", "2373": "apt", "2374": "ples", "2375": "cle", "2376": " lo", "2377": " decl", "2378": " item", "2379": "medi", "2380": " represent", "2381": "omb", "2382": "amer", "2383": " significant", "2384": "ograph", "2385": "su", "2386": " cal", "2387": "ires", "2388": "0000", "2389": "ID", "2390": "AM", "2391": " simply", "2392": " longer", "2393": " file", "2394": "OT", "2395": "che", "2396": "So", "2397": "ateg", "2398": "org", "2399": " His", "2400": " ener", "2401": " dom", "2402": " upon", "2403": "ili", "2404": "\":\"", "2405": " themselves", "2406": " coming", "2407": " quite", "2408": " difficult", "2409": " Bar", "2410": "ilities", "2411": "rel", "2412": "ends", "2413": "cial", "2414": "64", "2415": " woman", "2416": "rap", "2417": "yr", "2418": " necess", "2419": "ips", "2420": " text", "2421": " require", "2422": " military", "2423": " review", "2424": " respons", "2425": "75", "2426": " subject", "2427": " instead", "2428": " issues", "2429": " gen", "2430": "\",\"", "2431": " minutes", "2432": " weap", "2433": "ray", "2434": "amed", "2435": "time", "2436": "bl", "2437": "How", "2438": " code", "2439": " Sm", "2440": " higher", "2441": " Ste", "2442": "ris", "2443": " page", "2444": " students", "2445": " Intern", "2446": " method", "2447": " Aug", "2448": " Per", "2449": " Ag", "2450": " policy", "2451": " Sw", "2452": " exec", "2453": " accept", "2454": "ume", "2455": "ribut", "2456": " words", "2457": " final", "2458": " changes", "2459": " Democr", "2460": " friends", "2461": " respect", "2462": " ep", "2463": " compan", "2464": "ivil", "2465": " damage", "2466": "****", "2467": "ogle", "2468": "vironment", "2469": " neg", "2470": "ental", "2471": " ap", "2472": " total", "2473": "ival", "2474": "!\"", "2475": "lim", "2476": " needs", "2477": " agre", "2478": " development", "2479": " age", "2480": "iple", "2481": "21", "2482": " results", "2483": " Af", "2484": "Sh", "2485": " gun", "2486": " Obama", "2487": "roll", "2488": " @", "2489": " rights", "2490": " Brit", "2491": " running", "2492": " wasn", "2493": " port", "2494": " rate", "2495": " pretty", "2496": " target", "2497": " saw", "2498": " circ", "2499": " works", "2500": "icro", "2501": "alt", "2502": "over", "2503": "www", "2504": "That", "2505": "lier", "2506": " everyone", "2507": "ude", "2508": " pie", "2509": "iddle", "2510": "rael", "2511": " rad", "2512": " block", "2513": " walk", "2514": "To", "2515": "\ufffd", "2516": "nes", "2517": " Aust", "2518": "aul", "2519": "rote", "2520": " South", "2521": "ession", "2522": "oph", "2523": " shows", "2524": " site", "2525": " jo", "2526": " risk", "2527": "clus", "2528": "lt", "2529": " inj", "2530": "iding", "2531": " Spe", "2532": " chall", "2533": "irm", "2534": " 22", "2535": "itting", "2536": "str", "2537": " hy", "2538": "LE", "2539": "key", "2540": " began", "2541": "atur", "2542": "ashington", "2543": "lam", "2544": " Dav", "2545": "bit", "2546": " size", "2547": " Par", "2548": "38", "2549": "ournal", "2550": "face", "2551": " decision", "2552": " larg", "2553": " jud", "2554": "rect", "2555": " continue", "2556": " Oct", "2557": "overed", "2558": " Int", "2559": "========", "2560": " parent", "2561": " Will", "2562": " easy", "2563": " drug", "2564": "anger", "2565": " sense", "2566": " di", "2567": "iday", "2568": " energy", "2569": "istic", "2570": " associ", "2571": "arter", "2572": "obal", "2573": "eks", "2574": " El", "2575": "urch", "2576": " girl", "2577": "oe", "2578": "itle", "2579": " 28", "2580": " Che", "2581": " request", "2582": " soon", "2583": " host", "2584": "ky", "2585": " states", "2586": "omes", "2587": " material", "2588": "lex", "2589": " moment", "2590": " answ", "2591": "onse", "2592": " especially", "2593": " norm", "2594": " services", "2595": "pite", "2596": "ran", "2597": " role", "2598": "44", "2599": "):", "2600": " cred", "2601": "Cl", "2602": "________", "2603": " mat", "2604": " log", "2605": " Clinton", "2606": "OU", "2607": " office", "2608": " 26", "2609": " charg", "2610": " track", "2611": "ma", "2612": " heart", "2613": " ball", "2614": " personal", "2615": " building", "2616": "na", "2617": "set", "2618": "body", "2619": " Black", "2620": " increase", "2621": "itten", "2622": " needed", "2623": "36", "2624": "32", "2625": "=\"", "2626": " lost", "2627": " became", "2628": " groups", "2629": " Mus", "2630": " wrote", "2631": " Pe", "2632": " prop", "2633": "joy", "2634": "\u00e9", "2635": " White", "2636": " dead", "2637": ".'", "2638": " http", "2639": " webs", "2640": "OS", "2641": " inside", "2642": " wrong", "2643": " statement", "2644": " ...", "2645": "yl", "2646": " film", "2647": " music", "2648": " share", "2649": "ification", "2650": " release", "2651": " forward", "2652": " stay", "2653": " comput", "2654": "itte", "2655": "ser", "2656": " original", "2657": " card", "2658": " cand", "2659": " div", "2660": "atural", "2661": " favor", "2662": "OM", "2663": " cases", "2664": "uses", "2665": " section", "2666": " leave", "2667": "ging", "2668": "oved", "2669": " Washington", "2670": "39", "2671": " Gl", "2672": " required", "2673": "action", "2674": "apan", "2675": "oor", "2676": "iter", "2677": " King", "2678": " countries", "2679": " German", "2680": "lling", "2681": " 27", "2682": "34", "2683": " questions", "2684": " prim", "2685": " cell", "2686": " shoot", "2687": " anyone", "2688": " West", "2689": " affect", "2690": "epend", "2691": " online", "2692": " Israel", "2693": " September", "2694": " ability", "2695": " content", "2696": "ises", "2697": " reve", "2698": " laun", "2699": " indic", "2700": " force", "2701": "cast", "2702": " sold", "2703": "aving", "2704": "fl", "2705": " soft", "2706": " companies", "2707": "ceed", "2708": " article", "2709": " aud", "2710": " rev", "2711": " educ", "2712": " playing", "2713": "05", "2714": " held", "2715": "ctor", "2716": " released", "2717": " federal", "2718": "37", "2719": " administ", "2720": " interview", "2721": " install", "2722": " received", "2723": " source", "2724": "uk", "2725": "Ph", "2726": " serious", "2727": " created", "2728": " cause", "2729": " immedi", "2730": " defin", "2731": "uel", "2732": " Department", "2733": "ctions", "2734": " Cour", "2735": " Now", "2736": "ze", "2737": "ites", "2738": "itution", "2739": " late", "2740": " speak", "2741": "ners", "2742": " legal", "2743": "ari", "2744": " Cor", "2745": " weeks", "2746": " model", "2747": " pred", "2748": " exact", "2749": "BC", "2750": " By", "2751": "ING", "2752": "osing", "2753": " takes", "2754": " regard", "2755": " opportun", "2756": " price", "2757": " 198", "2758": " Apr", "2759": "fully", "2760": " ord", "2761": " problems", "2762": "ruction", "2763": "ham", "2764": " Count", "2765": "lege", "2766": " leaders", "2767": "ET", "2768": "lev", "2769": " deep", "2770": "ological", "2771": "ese", "2772": "haps", "2773": " Some", "2774": " pers", "2775": " contract", "2776": " relationship", "2777": "sp", "2778": "oud", "2779": " base", "2780": "48", "2781": "mit", "2782": "Ad", "2783": "ancial", "2784": " consum", "2785": " potential", "2786": " langu", "2787": "rem", "2788": "eth", "2789": " relig", "2790": "ressed", "2791": "66", "2792": " link", "2793": " lower", "2794": "ayer", "2795": " June", "2796": " fem", "2797": "unt", "2798": "erc", "2799": "urd", "2800": " contact", "2801": " ill", "2802": " mother", "2803": " estab", "2804": "htt", "2805": " March", "2806": " Bro", "2807": " China", "2808": " 29", "2809": " squ", "2810": " provided", "2811": " average", "2812": "asons", "2813": " 2011", "2814": " exam", "2815": "lin", "2816": "55", "2817": "ned", "2818": " perfect", "2819": " tou", "2820": "alse", "2821": "ux", "2822": " buy", "2823": " shot", "2824": " collect", "2825": " phot", "2826": " played", "2827": " surpr", "2828": " officials", "2829": " simple", "2830": "avy", "2831": " industry", "2832": " hands", "2833": "ground", "2834": " pull", "2835": " round", "2836": " user", "2837": " range", "2838": "uary", "2839": " private", "2840": "ops", "2841": "ees", "2842": " ways", "2843": " Mich", "2844": " veh", "2845": " except", "2846": " terms", "2847": "imum", "2848": "pper", "2849": "ION", "2850": "ores", "2851": " Dragon", "2852": "oul", "2853": " den", "2854": " performance", "2855": " bill", "2856": "cil", "2857": "47", "2858": " environment", "2859": " exc", "2860": "add", "2861": " worth", "2862": " pict", "2863": " chance", "2864": " 2018", "2865": "bor", "2866": " speed", "2867": "iction", "2868": " alleg", "2869": " Japan", "2870": "atory", "2871": "reet", "2872": " match", "2873": " II", "2874": " stru", "2875": "order", "2876": " ste", "2877": " living", "2878": " struct", "2879": "ino", "2880": " separ", "2881": "hern", "2882": " response", "2883": " enjoy", "2884": " via", "2885": "AD", "2886": "uments", "2887": "acebook", "2888": " member", "2889": "ibr", "2890": "izing", "2891": " tool", "2892": " Mon", "2893": " While", "2894": "hood", "2895": " Ang", "2896": " Def", "2897": " offer", "2898": "Tr", "2899": "aur", "2900": " turned", "2901": " July", "2902": "down", "2903": "anced", "2904": " recently", "2905": " Ear", "2906": " ce", "2907": " Star", "2908": " Cong", "2909": "rought", "2910": " blood", "2911": " hope", "2912": " comment", "2913": "aint", "2914": " arri", "2915": "iles", "2916": " particip", "2917": "ought", "2918": "ription", "2919": "08", "2920": "49", "2921": " gave", "2922": " select", "2923": " killed", "2924": "sych", "2925": " goes", "2926": "ij", "2927": " coll", "2928": " impact", "2929": "atives", "2930": " Ser", "2931": "09", "2932": " August", "2933": " boy", "2934": "de", "2935": " Des", "2936": " felt", "2937": "US", "2938": " expected", "2939": " image", "2940": " Mark", "2941": "ccording", "2942": "oice", "2943": "EC", "2944": " Mag", "2945": "ened", "2946": "hold", "2947": " Post", "2948": " prevent", "2949": "No", "2950": " involved", "2951": " eyes", "2952": " quickly", "2953": "At", "2954": "unk", "2955": " behav", "2956": " ur", "2957": " led", "2958": "come", "2959": "ey", "2960": " candid", "2961": " earlier", "2962": " focus", "2963": "ety", "2964": "Pro", "2965": "ledge", "2966": "ixed", "2967": "illed", "2968": " popular", "2969": "AP", "2970": " sett", "2971": "light", "2972": " various", "2973": "inks", "2974": " levels", "2975": " road", "2976": "ellig", "2977": "ables", "2978": "hel", "2979": "ittee", "2980": " Gener", "2981": "ype", "2982": " heard", "2983": "icles", "2984": " mis", "2985": " users", "2986": " San", "2987": " improve", "2988": " father", "2989": " search", "2990": "They", "2991": "vil", "2992": " profess", "2993": " knew", "2994": " loss", "2995": " events", "2996": "65", "2997": " billion", "2998": "07", "2999": "02", "3000": " News", "3001": " AM", "3002": " cover", "3003": "where", "3004": "ension", "3005": " bott", "3006": " areas", "3007": "ences", "3008": "ope", "3009": " Twitter", "3010": "ael", "3011": " gets", "3012": " Google", "3013": " sn", "3014": "iant", "3015": " vote", "3016": " nearly", "3017": " included", "3018": " recogn", "3019": "zz", "3020": "mm", "3021": "aled", "3022": " happened", "3023": "04", "3024": " hot", "3025": " whose", "3026": " civil", "3027": " suff", "3028": "oes", "3029": "itiz", "3030": " Syri", "3031": " respond", "3032": " hon", "3033": " features", "3034": " economic", "3035": " April", "3036": "rim", "3037": " technology", "3038": " option", "3039": "aging", "3040": " purch", "3041": "Re", "3042": " lat", "3043": "chie", "3044": "isl", "3045": " recomm", "3046": "uf", "3047": " training", "3048": " effects", "3049": " fast", "3050": " 2010", "3051": " occur", "3052": " website", "3053": " email", "3054": " sens", "3055": "ech", "3056": " oil", "3057": " influ", "3058": " currently", "3059": " Sch", "3060": " Add", "3061": " goal", "3062": " scient", "3063": " conv", "3064": "100", "3065": "emy", "3066": " decided", "3067": " travel", "3068": " mention", "3069": "LL", "3070": "03", "3071": " election", "3072": " phone", "3073": " looks", "3074": " situation", "3075": " cy", "3076": " hor", "3077": "bed", "3078": " Court", "3079": "aily", "3080": "aves", "3081": " quality", "3082": " Comp", "3083": "wise", "3084": " table", "3085": " staff", "3086": " Wind", "3087": "ett", "3088": " tried", "3089": "idered", "3090": " addition", "3091": " box", "3092": " lack", "3093": "arily", "3094": " wide", "3095": " mid", "3096": " board", "3097": "ysis", "3098": " anti", "3099": "ha", "3100": " dig", "3101": "ening", "3102": " dro", "3103": "Con", "3104": "68", "3105": " slow", "3106": "based", "3107": "sequ", "3108": " path", "3109": "Ex", "3110": "aker", "3111": " worked", "3112": " pen", "3113": " engine", "3114": " looked", "3115": " Super", "3116": " Serv", "3117": " victim", "3118": "Un", "3119": " property", "3120": " introdu", "3121": " execut", "3122": " PM", "3123": "Le", "3124": " color", "3125": " More", "3126": " 60", "3127": " network", "3128": " date", "3129": "cul", "3130": "idge", "3131": " extra", "3132": "31", "3133": " sle", "3134": "67", "3135": " wond", "3136": " reports", "3137": "just", "3138": " Austral", "3139": " capital", "3140": " ens", "3141": " command", "3142": " allowed", "3143": " prep", "3144": " capt", "3145": "hib", "3146": " numbers", "3147": "chan", "3148": " fair", "3149": "mp", "3150": "oms", "3151": " reach", "3152": "With", "3153": "tain", "3154": " broad", "3155": " couple", "3156": "ecause", "3157": "lying", "3158": " Feb", "3159": " screen", "3160": " lives", "3161": " prior", "3162": " Congress", "3163": "Ar", "3164": " approach", "3165": " emer", "3166": "aries", "3167": " Dis", "3168": "serv", "3169": " Ne", "3170": " built", "3171": "cies", "3172": " repe", "3173": " rules", "3174": "force", "3175": " Pal", "3176": " financial", "3177": " considered", "3178": " Char", "3179": "nces", "3180": " IS", "3181": " brought", "3182": " bi", "3183": "iers", "3184": " Sim", "3185": "OP", "3186": " products", "3187": " visit", "3188": " document", "3189": " conduct", "3190": " completely", "3191": "ining", "3192": " Calif", "3193": "ibly", "3194": " written", "3195": " TV", "3196": "ements", "3197": " draw", "3198": "One", "3199": " published", "3200": " secret", "3201": "rain", "3202": "het", "3203": " Facebook", "3204": "onday", "3205": " Up", "3206": " sexual", "3207": " thous", "3208": " Pat", "3209": " ess", "3210": " standard", "3211": " arm", "3212": "ges", "3213": "ection", "3214": " fell", "3215": " foreign", "3216": "ani", "3217": " Friday", "3218": " regular", "3219": "inary", "3220": " increased", "3221": " usually", "3222": " demon", "3223": " dark", "3224": " additional", "3225": "rol", "3226": " Of", "3227": " production", "3228": "!!", "3229": "undred", "3230": " international", "3231": "idents", "3232": " Free", "3233": "roup", "3234": " race", "3235": " mach", "3236": " huge", "3237": "All", "3238": "lear", "3239": "ovember", "3240": " town", "3241": " attention", "3242": " Off", "3243": "yond", "3244": " Then", "3245": "field", "3246": " terror", "3247": "raz", "3248": " Bo", "3249": " meeting", "3250": " Park", "3251": " arrest", "3252": " fear", "3253": " aw", "3254": " Val", "3255": "oring", "3256": "',", "3257": " extreme", "3258": "arr", "3259": " workers", "3260": "After", "3261": " 31", "3262": "net", "3263": "ament", "3264": " directly", "3265": " population", "3266": "ube", "3267": " October", "3268": " IN", "3269": " January", "3270": "59", "3271": " David", "3272": " cross", "3273": "cember", "3274": " First", "3275": " message", "3276": "irit", "3277": " nation", "3278": " poll", "3279": "isions", "3280": " answer", "3281": "ny", "3282": "isode", "3283": " carry", "3284": " Russia", "3285": " hear", "3286": "ength", "3287": "roy", "3288": " natural", "3289": "inally", "3290": " dog", "3291": "mitted", "3292": " trade", "3293": " subst", "3294": " multiple", "3295": " Afric", "3296": " fans", "3297": " sort", "3298": " global", "3299": "ication", "3300": " Wed", "3301": "ara", "3302": " achie", "3303": " language", "3304": "vey", "3305": " tal", "3306": " necessary", "3307": " details", "3308": " sen", "3309": " Sund", "3310": " Reg", "3311": " Rec", "3312": "06", "3313": " sil", "3314": "ressive", "3315": " medical", "3316": "unch", "3317": "ornia", "3318": " und", "3319": "fort", "3320": "ocks", "3321": " Monday", "3322": "uesday", "3323": "craft", "3324": "77", "3325": "urt", "3326": " ver", "3327": " Hill", "3328": " receive", "3329": " morning", "3330": "estern", "3331": " bank", "3332": " sat", "3333": "irth", "3334": " High", "3335": " device", "3336": " THE", "3337": " Center", "3338": " safe", "3339": " ple", "3340": " Canada", "3341": " systems", "3342": " assist", "3343": " surv", "3344": " battle", "3345": " Soc", "3346": "vertis", "3347": "She", "3348": " paper", "3349": " growth", "3350": " cast", "3351": "Sc", "3352": " plans", "3353": "lled", "3354": " parts", "3355": " wall", "3356": " movement", "3357": " practice", "3358": "imately", "3359": " display", "3360": " sometimes", "3361": "omp", "3362": " Paul", "3363": " Yes", "3364": "king", "3365": "58", "3366": "oly", "3367": " son", "3368": " avoid", "3369": "okes", "3370": " Jew", "3371": " towards", "3372": "asc", "3373": " //", "3374": " Kore", "3375": " talking", "3376": " correct", "3377": " spent", "3378": "icks", "3379": "iable", "3380": "eared", "3381": " term", "3382": " wants", "3383": "oming", "3384": " ut", "3385": " doub", "3386": " forces", "3387": " please", "3388": "69", "3389": " November", "3390": "atform", "3391": "ondon", "3392": " ones", "3393": " immediately", "3394": " Russian", "3395": " Met", "3396": " deg", "3397": " parents", "3398": "CH", "3399": " Americans", "3400": "aly", "3401": " Mod", "3402": " shown", "3403": " conditions", "3404": " stuff", "3405": " reb", "3406": " Your", "3407": " includes", "3408": "nown", "3409": " Sam", "3410": " experien", "3411": "mission", "3412": " Even", "3413": "aught", "3414": " announced", "3415": " Republican", "3416": " determin", "3417": " described", "3418": " County", "3419": "()", "3420": " door", "3421": " changed", "3422": " neigh", "3423": " Here", "3424": " clean", "3425": " pan", "3426": " December", "3427": " European", "3428": "iring", "3429": "apter", "3430": " club", "3431": " Tuesday", "3432": " paid", "3433": " Net", "3434": " attacks", "3435": " characters", "3436": " alone", "3437": " director", "3438": "dom", "3439": " 35", "3440": " load", "3441": " rout", "3442": " California", "3443": " finally", "3444": " rac", "3445": " contr", "3446": " exactly", "3447": "resh", "3448": "pri", "3449": " Islam", "3450": " nature", "3451": " career", "3452": " latest", "3453": " convers", "3454": " Sl", "3455": "pose", "3456": "cient", "3457": " Inc", "3458": "ivity", "3459": "88", "3460": " Att", "3461": " Mor", "3462": "nesday", "3463": " weight", "3464": "ken", "3465": " note", "3466": " teams", "3467": " \\", "3468": "airs", "3469": " Green", "3470": " hundred", "3471": "onent", "3472": " streng", "3473": " consist", "3474": "icated", "3475": " regul", "3476": " lic", "3477": "astic", "3478": " ten", "3479": "ursday", "3480": "elligence", "3481": "ously", "3482": " UK", "3483": "BI", "3484": " costs", "3485": " independ", "3486": " AP", "3487": " normal", "3488": " hom", "3489": " obvious", "3490": " swe", "3491": " star", "3492": " ready", "3493": "acher", "3494": " implement", "3495": "gest", "3496": " song", "3497": " Get", "3498": " Lab", "3499": " interesting", "3500": "using", "3501": " giving", "3502": " Sunday", "3503": " etc", "3504": " middle", "3505": " remember", "3506": "right", "3507": "osition", "3508": "utions", "3509": " max", "3510": "46", "3511": " yourself", "3512": " demand", "3513": " treatment", "3514": " danger", "3515": " Cons", "3516": " guy", "3517": " British", "3518": " physical", "3519": " related", "3520": " remain", "3521": " couldn", "3522": " refer", "3523": " citiz", "3524": "box", "3525": "ENT", "3526": "board", "3527": " inn", "3528": "IG", "3529": "ero", "3530": " Street", "3531": "ospital", "3532": "rench", "3533": "chers", "3534": " stra", "3535": "OL", "3536": "ager", "3537": " AN", "3538": " easily", "3539": "IA", "3540": "enge", "3541": "iny", "3542": " clos", "3543": "ocked", "3544": " uses", "3545": " Coun", "3546": "Im", "3547": "uild", "3548": "??", "3549": "more", "3550": " ang", "3551": " write", "3552": "olute", "3553": "57", "3554": " leader", "3555": " reading", "3556": "</", "3557": " autom", "3558": "ests", "3559": "43", "3560": " legisl", "3561": " Gold", "3562": " designed", "3563": " ST", "3564": " Leg", "3565": "ares", "3566": " beaut", "3567": " Tex", "3568": " appears", "3569": " strugg", "3570": " Rom", "3571": " 00", "3572": " choice", "3573": " particularly", "3574": " From", "3575": "oper", "3576": " London", "3577": "anned", "3578": " allows", "3579": "obile", "3580": " difference", "3581": "\u2022", "3582": " View", "3583": " Wednesday", "3584": " although", "3585": " relative", "3586": " application", "3587": "atever", "3588": " aren", "3589": " myself", "3590": " imag", "3591": " dise", "3592": " society", "3593": " frequ", "3594": " English", "3595": " poor", "3596": " Day", "3597": " writing", "3598": " seven", "3599": " starting", "3600": " bud", "3601": " print", "3602": " Trans", "3603": "ufact", "3604": " Stud", "3605": "new", "3606": " crim", "3607": " gives", "3608": " cool", "3609": "ae", "3610": "iance", "3611": " General", "3612": " thinking", "3613": " save", "3614": " limited", "3615": " Party", "3616": " meaning", "3617": "pen", "3618": "owers", "3619": " Jack", "3620": "EM", "3621": " nice", "3622": "rupt", "3623": " gas", "3624": " eight", "3625": " feet", "3626": " effort", "3627": " ign", "3628": "icit", "3629": "Bl", "3630": "coin", "3631": " opin", "3632": " brain", "3633": "While", "3634": "hest", "3635": " Thursday", "3636": " wouldn", "3637": "aughter", "3638": " touch", "3639": "lements", "3640": " studies", "3641": " center", "3642": "cont", "3643": "orge", "3644": " computer", "3645": " investigation", "3646": "Pl", "3647": "orks", "3648": " 2008", "3649": " increasing", "3650": " store", "3651": " comments", "3652": " bal", "3653": "men", "3654": " doll", "3655": " liber", "3656": " wife", "3657": " laws", "3658": "aturday", "3659": "itness", "3660": " modern", "3661": " Sk", "3662": " administration", "3663": " opportunity", "3664": " sal", "3665": " powerful", "3666": "My", "3667": " claims", "3668": " Earth", "3669": "ords", "3670": " title", "3671": " esc", "3672": "name", "3673": "Not", "3674": "omen", "3675": " beyond", "3676": " camer", "3677": " sell", "3678": "itute", "3679": "earch", "3680": " appl", "3681": "iment", "3682": "42", "3683": " Art", "3684": " unf", "3685": " violence", "3686": "urg", "3687": " East", "3688": " compared", "3689": " options", "3690": " throughout", "3691": " vs", "3692": "igr", "3693": ".[", "3694": "aches", "3695": "78", "3696": " files", "3697": "FL", "3698": "EL", "3699": "arian", "3700": " James", "3701": " Air", "3702": "anch", "3703": " detail", "3704": " piece", "3705": "PS", "3706": " named", "3707": " education", "3708": " drive", "3709": " items", "3710": " student", "3711": "iced", "3712": "::", "3713": "ico", "3714": " throw", "3715": " scene", "3716": " complex", "3717": " 2009", "3718": " prec", "3719": " Bre", "3720": "79", "3721": " concept", "3722": " status", "3723": "aming", "3724": " died", "3725": " knowledge", "3726": " beginning", "3727": "OD", "3728": "ruary", "3729": " certainly", "3730": " guys", "3731": " slight", "3732": "inn", "3733": "ounds", "3734": " fine", "3735": " fat", "3736": "ications", "3737": " perhaps", "3738": " Ant", "3739": " income", "3740": " https", "3741": " majority", "3742": "ports", "3743": "ston", "3744": " greater", "3745": " feed", "3746": "entially", "3747": " safety", "3748": " unique", "3749": "andom", "3750": " gone", "3751": " showed", "3752": " histor", "3753": " counter", "3754": "ius", "3755": "ida", "3756": " leading", "3757": "ipe", "3758": " send", "3759": " Donald", "3760": "erve", "3761": " defense", "3762": "inese", "3763": " yes", "3764": " Fire", "3765": " Muslim", "3766": "raq", "3767": " continued", "3768": "osh", "3769": " provides", "3770": " prison", "3771": " Pre", "3772": " happy", "3773": " economy", "3774": " trust", "3775": "ags", "3776": " Game", "3777": " weapons", "3778": "uman", "3779": " Cle", "3780": "itation", "3781": " analysis", "3782": " Times", "3783": " science", "3784": "->", "3785": " figure", "3786": " disapp", "3787": "enty", "3788": " software", "3789": " ult", "3790": " officers", "3791": "New", "3792": "Is", "3793": " remains", "3794": " India", "3795": " psych", "3796": "rief", "3797": " cat", "3798": "esc", "3799": " observ", "3800": " stage", "3801": " Dark", "3802": " enter", "3803": "change", "3804": " passed", "3805": " despite", "3806": " Out", "3807": " movie", "3808": "rs", "3809": " voice", "3810": "mine", "3811": " Play", "3812": " toward", "3813": " Ter", "3814": " region", "3815": " values", "3816": "orters", "3817": " mount", "3818": " officer", "3819": " Other", "3820": "ban", "3821": " hous", "3822": "wood", "3823": "room", "3824": "IV", "3825": " Sun", "3826": "see", "3827": " Over", "3828": "rog", "3829": "90", "3830": " lay", "3831": " Tur", "3832": "awn", "3833": " pressure", "3834": " Sub", "3835": " books", "3836": "edom", "3837": " Sand", "3838": "AA", "3839": "ago", "3840": " reasons", "3841": "ford", "3842": " activity", "3843": "UT", "3844": "Now", "3845": " Senate", "3846": "cell", "3847": "night", "3848": " calls", "3849": "inter", "3850": " letter", "3851": " Rob", "3852": " Je", "3853": " choose", "3854": " Law", "3855": "Get", "3856": "Be", "3857": " rob", "3858": " types", "3859": " platform", "3860": " quarter", "3861": "RA", "3862": " Time", "3863": " maybe", "3864": " Cr", "3865": "95", "3866": "pre", "3867": " moving", "3868": " lif", "3869": " gold", "3870": " som", "3871": " patients", "3872": " truth", "3873": " Ke", "3874": "urance", "3875": "antly", "3876": "mar", "3877": " charge", "3878": " Great", "3879": " cele", "3880": "--------------------------------", "3881": " rock", "3882": "roid", "3883": "ancy", "3884": " credit", "3885": "aud", "3886": "By", "3887": " Every", "3888": " moved", "3889": "inger", "3890": "ribution", "3891": " names", "3892": " straight", "3893": " Health", "3894": " Well", "3895": " feature", "3896": " rule", "3897": " sche", "3898": "inated", "3899": " Michael", "3900": "berg", "3901": "41", "3902": "iled", "3903": "band", "3904": " click", "3905": " Angel", "3906": "onents", "3907": "\u00ad", "3908": " Iraq", "3909": " Saturday", "3910": " aware", "3911": "part", "3912": " pattern", "3913": "OW", "3914": " Let", "3915": " grad", "3916": "igned", "3917": " associated", "3918": " style", "3919": "no", "3920": "iation", "3921": "aith", "3922": "ilies", "3923": " stories", "3924": "uration", "3925": " individuals", "3926": " \u2026", "3927": "miss", "3928": " Associ", "3929": "ishing", "3930": "aby", "3931": " summer", "3932": " Ben", "3933": " 32", "3934": " arch", "3935": "uty", "3936": " Texas", "3937": "hol", "3938": " fully", "3939": " mill", "3940": " followed", "3941": " Bill", "3942": " Indian", "3943": " Secret", "3944": " Bel", "3945": " February", "3946": " jobs", "3947": " seemed", "3948": " Govern", "3949": "ipped", "3950": " reality", "3951": " lines", "3952": " park", "3953": " measure", "3954": " Our", "3955": "IM", "3956": " brother", "3957": " growing", "3958": " ban", "3959": " estim", "3960": " cry", "3961": " School", "3962": " mechan", "3963": " OF", "3964": " Windows", "3965": " rates", "3966": " Oh", "3967": " positive", "3968": " culture", "3969": "istics", "3970": "ica", "3971": " har", "3972": "ya", "3973": "itely", "3974": "ipp", "3975": " map", "3976": "encies", "3977": " William", "3978": "II", "3979": "akers", "3980": "56", "3981": " Mart", "3982": " Rem", "3983": " altern", "3984": "itude", "3985": " coach", "3986": "rowd", "3987": "Don", "3988": " kids", "3989": " journal", "3990": " corpor", "3991": " false", "3992": " web", "3993": " sleep", "3994": " contain", "3995": " sto", "3996": " bed", "3997": "iverse", "3998": " Rich", "3999": " Chinese", "4000": " pun", "4001": " meant", "4002": "known", "4003": " notice", "4004": " favorite", "4005": "aven", "4006": " condition", "4007": " purpose", "4008": "))", "4009": " organization", "4010": " challeng", "4011": " manufact", "4012": " susp", "4013": " Ac", "4014": " critic", "4015": "unes", "4016": "uclear", "4017": " mer", "4018": "vention", "4019": " 80", "4020": " mist", "4021": " Us", "4022": " Tor", "4023": "http", "4024": "olf", "4025": " larger", "4026": " advant", "4027": " resear", "4028": " actions", "4029": "ml", "4030": " kept", "4031": " aim", "4032": ",'", "4033": "col", "4034": " benefits", "4035": "ifying", "4036": " actual", "4037": " International", "4038": " vehicle", "4039": " chief", "4040": " efforts", "4041": " League", "4042": " Most", "4043": " wait", "4044": " adult", "4045": " overall", "4046": " speech", "4047": " highly", "4048": " female", "4049": " error", "4050": " effective", "4051": "54", "4052": " encour", "4053": "well", "4054": " failed", "4055": " conserv", "4056": " programs", "4057": " trou", "4058": " ahead", "4059": "500", "4060": "vertisement", "4061": "IP", "4062": " Found", "4063": "pir", "4064": " %", "4065": " crime", "4066": "ander", "4067": " location", "4068": " Iran", "4069": " behavior", "4070": "azing", "4071": " rare", "4072": " emb", "4073": " caused", "4074": " ship", "4075": " active", "4076": " contribut", "4077": " green", "4078": " acqu", "4079": " reflect", "4080": "venue", "4081": " firm", "4082": " birth", "4083": "].", "4084": " clearly", "4085": " emot", "4086": " agency", "4087": "riage", "4088": " memory", "4089": "98", "4090": "SA", "4091": " See", "4092": "acing", "4093": "CC", "4094": " biggest", "4095": " rap", "4096": " basic", "4097": " band", "4098": "eat", "4099": " suspect", "4100": " Mac", "4101": " 90", "4102": "mark", "4103": "istan", "4104": " spread", "4105": "ams", "4106": "ki", "4107": "asy", "4108": "rav", "4109": " Rober", "4110": " demonstr", "4111": "rated", "4112": " absolute", "4113": " places", "4114": " impl", "4115": "ibrary", "4116": " cards", "4117": " destroy", "4118": " virt", "4119": "vere", "4120": " appeared", "4121": "yan", "4122": "point", "4123": " beg", "4124": " temper", "4125": "spe", "4126": "anted", "4127": "ears", "4128": " Direct", "4129": " length", "4130": " blog", "4131": "amb", "4132": " integ", "4133": " resources", "4134": "acc", "4135": "iful", "4136": " spot", "4137": " forced", "4138": " thousands", "4139": " Minister", "4140": " qual", "4141": " French", "4142": "atically", "4143": " generally", "4144": " drink", "4145": " thus", "4146": "IL", "4147": "odes", "4148": " appropri", "4149": " Read", "4150": " whom", "4151": " eye", "4152": " college", "4153": " 45", "4154": "irection", "4155": " ensure", "4156": " apparent", "4157": "iders", "4158": " religious", "4159": " minor", "4160": "olic", "4161": " tro", "4162": " Why", "4163": "ribute", "4164": "met", "4165": " primary", "4166": " developed", "4167": " peace", "4168": " skin", "4169": "ste", "4170": "ava", "4171": " blue", "4172": " families", "4173": " ir", "4174": " apply", "4175": " inform", "4176": " Smith", "4177": "CT", "4178": "ii", "4179": " limit", "4180": " resist", "4181": "................", "4182": "umn", "4183": " conflic", "4184": " twe", "4185": "udd", "4186": " Tom", "4187": " liter", "4188": "que", "4189": "bon", "4190": " hair", "4191": " eventually", "4192": " pus", "4193": " helped", "4194": " agg", "4195": "orney", "4196": " Apple", "4197": " fit", "4198": " Sur", "4199": " prem", "4200": " sales", "4201": " seconds", "4202": " strength", "4203": " feeling", "4204": "\ufffd\ufffd", "4205": " tour", "4206": " knows", "4207": "oom", "4208": " exerc", "4209": " somew", "4210": "\ufffd", "4211": ">>", "4212": " spokes", "4213": " ideas", "4214": " regist", "4215": "soft", "4216": " Del", "4217": " PC", "4218": " propos", "4219": " launch", "4220": " bottom", "4221": "TH", "4222": " Please", "4223": "vest", "4224": "itz", "4225": " Inter", "4226": " script", "4227": " rat", "4228": "arning", "4229": " il", "4230": " Jer", "4231": " Are", "4232": " whatever", "4233": "oken", "4234": "cience", "4235": " mode", "4236": " agree", "4237": " sources", "4238": " initial", "4239": " restrict", "4240": " wonder", "4241": "usion", "4242": "####", "4243": " Sil", "4244": "ville", "4245": " burn", "4246": "tw", "4247": "asion", "4248": " \u00a3", "4249": " nor", "4250": "uing", "4251": " reached", "4252": " sun", "4253": " categ", "4254": "igration", "4255": " cook", "4256": " promot", "4257": " male", "4258": " climate", "4259": " fix", "4260": " alleged", "4261": "UR", "4262": "alled", "4263": " images", "4264": "Cont", "4265": "ota", "4266": " schools", "4267": "ios", "4268": " drop", "4269": " stream", "4270": " Mo", "4271": " previously", "4272": "aling", "4273": " pet", "4274": " double", "4275": " (@", "4276": "annel", "4277": " default", "4278": "ties", "4279": " rank", "4280": " Dec", "4281": " Council", "4282": " weapon", "4283": " stock", "4284": " analy", "4285": " Str", "4286": " picture", "4287": " Police", "4288": "ference", "4289": " century", "4290": " citizens", "4291": " onto", "4292": " expand", "4293": " hero", "4294": " Sol", "4295": " wild", "4296": " update", "4297": " customers", "4298": "ront", "4299": "def", "4300": " lik", "4301": " criminal", "4302": " Christian", "4303": "SP", "4304": "76", "4305": " leaving", "4306": " otherwise", "4307": " Dist", "4308": " basis", "4309": "52", "4310": "53", "4311": "icip", "4312": " Ber", "4313": " recommend", "4314": " floor", "4315": " crowd", "4316": "oles", "4317": " 70", "4318": " central", "4319": " Ev", "4320": " dream", "4321": " download", "4322": " confir", "4323": " Thom", "4324": " window", "4325": " happens", "4326": " unit", "4327": " tend", "4328": " spl", "4329": " becomes", "4330": " fighting", "4331": " predict", "4332": " Press", "4333": " Power", "4334": " heavy", "4335": "aked", "4336": " fan", "4337": "orter", "4338": "ategy", "4339": "BA", "4340": "izes", "4341": " spend", "4342": "Here", "4343": " 2007", "4344": " adop", "4345": " Ham", "4346": " football", "4347": " Port", "4348": "oday", "4349": "51", "4350": "ampions", "4351": " transfer", "4352": "ht", "4353": " 38", "4354": "term", "4355": "acity", "4356": " bur", "4357": "],", "4358": "ternal", "4359": "rig", "4360": "but", "4361": " therefore", "4362": " Because", "4363": "resp", "4364": "rey", "4365": " mission", "4366": "Some", "4367": " noted", "4368": " assum", "4369": " disease", "4370": " edit", "4371": " progress", "4372": "rd", "4373": " Brown", "4374": "ocal", "4375": " adding", "4376": " raised", "4377": " Any", "4378": " tick", "4379": " seeing", "4380": " People", "4381": " agreement", "4382": " server", "4383": " wat", "4384": " debate", "4385": " supposed", "4386": "iling", "4387": " largest", "4388": " successful", "4389": " Pri", "4390": " Democratic", "4391": " jump", "4392": " Syria", "4393": " owners", "4394": " offers", "4395": " shooting", "4396": " effic", "4397": "sey", "4398": " haven", "4399": "verse", "4400": "tered", "4401": " Light", "4402": "imal", "4403": " Big", "4404": " defend", "4405": " beat", "4406": " records", "4407": "%)", "4408": " scen", "4409": " employees", "4410": " devices", "4411": "hem", "4412": " commer", "4413": " Mex", "4414": " benefit", "4415": " Prof", "4416": " illeg", "4417": " surface", "4418": " Also", "4419": " harm", "4420": "ingly", "4421": "wide", "4422": " Alex", "4423": " shut", "4424": " Cur", "4425": " lose", "4426": "pm", "4427": " challenge", "4428": "semb", "4429": " station", "4430": " intelligence", "4431": " accur", "4432": " Flor", "4433": " requires", "4434": " Mal", "4435": "bum", "4436": " hospital", "4437": " spirit", "4438": " offered", "4439": " produce", "4440": " Commun", "4441": " creating", "4442": " cris", "4443": "spect", "4444": " ended", "4445": " daily", "4446": " voters", "4447": "lands", "4448": "ias", "4449": "ih", "4450": "ona", "4451": " smart", "4452": " Office", "4453": " Lord", "4454": "rial", "4455": " Internet", "4456": " circum", "4457": " extremely", "4458": "'.", "4459": " opinion", "4460": " Mil", "4461": " gain", "4462": "BS", "4463": " Fin", "4464": "yp", "4465": " useful", "4466": " budget", "4467": " comfort", "4468": "isf", "4469": " background", "4470": "eline", "4471": " episode", "4472": " enemy", "4473": " trial", "4474": " establish", "4475": "date", "4476": " Cap", "4477": " continues", "4478": " showing", "4479": " Union", "4480": "with", "4481": " posted", "4482": " System", "4483": " eat", "4484": "rian", "4485": " rise", "4486": " Germany", "4487": "ils", "4488": " signed", "4489": " vill", "4490": " grand", "4491": "mor", "4492": " England", "4493": " projects", "4494": "umber", "4495": " conference", "4496": "za", "4497": " responsible", "4498": " Arab", "4499": " learned", "4500": "\u2014\u2014", "4501": "ipping", "4502": " George", "4503": "OC", "4504": " returned", "4505": " Australia", "4506": " brief", "4507": "Qu", "4508": " brand", "4509": "illing", "4510": "abled", "4511": " highest", "4512": " train", "4513": " Commission", "4514": "while", "4515": " nom", "4516": "ception", "4517": " mut", "4518": " Blue", "4519": " incident", "4520": "vant", "4521": "86", "4522": " ID", "4523": " nuclear", "4524": "74", "4525": " Like", "4526": " RE", "4527": " Micro", "4528": "li", "4529": "mail", "4530": " charges", "4531": "89", "4532": " adjust", "4533": "ado", "4534": " earth", "4535": "NA", "4536": " prices", "4537": "PA", "4538": " draft", "4539": " runs", "4540": " candidate", "4541": "enses", "4542": " management", "4543": " Phil", "4544": " Miss", "4545": " teach", "4546": "gram", "4547": " understanding", "4548": "ait", "4549": "icago", "4550": "Add", "4551": " Ep", "4552": "secut", "4553": " separate", "4554": " instance", "4555": " eth", "4556": " unless", "4557": "********", "4558": " Fore", "4559": "inate", "4560": " operations", "4561": "Sp", "4562": " faith", "4563": "gar", "4564": " Church", "4565": "ronic", "4566": " config", "4567": "osure", "4568": " activities", "4569": " traditional", "4570": " 36", "4571": " direction", "4572": " machine", "4573": " surround", "4574": " push", "4575": "unction", "4576": " EU", "4577": " easier", "4578": " argument", "4579": "GB", "4580": " micro", "4581": " spending", "4582": "izations", "4583": " theory", "4584": "adow", "4585": " calling", "4586": " Last", "4587": " der", "4588": " influence", "4589": " commit", "4590": " photo", "4591": " unc", "4592": "istry", "4593": "gn", "4594": "aste", "4595": "acks", "4596": " disp", "4597": "ady", "4598": "do", "4599": " Good", "4600": " `", "4601": " wish", "4602": " revealed", "4603": "\u00a0\u00a0", "4604": "lig", "4605": " enforce", "4606": " Committee", "4607": " chem", "4608": " miles", "4609": " interested", "4610": " solution", "4611": "icy", "4612": "inct", "4613": " ->", "4614": " Det", "4615": " removed", "4616": " compar", "4617": "eah", "4618": " plant", "4619": " Since", "4620": " achieve", "4621": " advantage", "4622": " slightly", "4623": "bing", "4624": " placed", "4625": "under", "4626": "2015", "4627": " Mad", "4628": " tim", "4629": "oses", "4630": " cru", "4631": " Rock", "4632": " mostly", "4633": " negative", "4634": " setting", "4635": " produced", "4636": " mur", "4637": " connection", "4638": " Mer", "4639": " driver", "4640": " executive", "4641": " assault", "4642": " born", "4643": " Ver", "4644": "tained", "4645": " structure", "4646": " reduce", "4647": " decades", "4648": " ded", "4649": "uke", "4650": " Many", "4651": "idden", "4652": " league", "4653": "Se", "4654": " join", "4655": " disco", "4656": " die", "4657": "cks", "4658": "actions", "4659": " assess", "4660": "agn", "4661": " goals", "4662": "ours", "4663": "IR", "4664": " senior", "4665": "iller", "4666": "mod", "4667": "ipment", "4668": "ocol", "4669": "uy", "4670": " Que", "4671": " parties", "4672": "irgin", "4673": " learning", "4674": "itable", "4675": " street", "4676": " camera", "4677": "App", "4678": " skills", "4679": "bre", "4680": "cious", "4681": " celebr", "4682": " Franc", "4683": " existing", "4684": " willing", "4685": "lor", "4686": " id", "4687": " Space", "4688": " critical", "4689": " La", "4690": "ortunately", "4691": " serve", "4692": " cold", "4693": " species", "4694": "TS", "4695": " animals", "4696": " Bay", "4697": " older", "4698": " Under", "4699": "estic", "4700": " Tre", "4701": " teacher", "4702": " prefer", "4703": "vis", "4704": " thread", "4705": " Matt", "4706": " manager", "4707": "\u30fb", "4708": " professional", "4709": " Vol", "4710": " notes", "4711": "These", "4712": "ula", "4713": " fresh", "4714": "ented", "4715": "uzz", "4716": "edy", "4717": "clusion", "4718": " Rel", "4719": " doubt", "4720": "EO", "4721": " opened", "4722": " Bit", "4723": "Advertisement", "4724": " guess", "4725": " UN", "4726": " sequ", "4727": " explain", "4728": "otten", "4729": " attract", "4730": "aks", "4731": " string", "4732": " context", "4733": "ossible", "4734": " Republicans", "4735": " solid", "4736": " cities", "4737": " asking", "4738": " random", "4739": "ups", "4740": "uries", "4741": "arant", "4742": "dden", "4743": "gl", "4744": " Florida", "4745": " depend", "4746": " Scott", "4747": " 33", "4748": " iT", "4749": "icon", "4750": " mentioned", "4751": " 2000", "4752": " claimed", "4753": " definitely", "4754": "ulf", "4755": " core", "4756": " opening", "4757": " Const", "4758": "which", "4759": " Tra", "4760": "AG", "4761": "72", "4762": " believed", "4763": "ada", "4764": " 48", "4765": " Security", "4766": "yright", "4767": " Pet", "4768": " Lou", "4769": " holding", "4770": "================", "4771": " ice", "4772": " brow", "4773": " authorities", "4774": "host", "4775": "word", "4776": " score", "4777": " Div", "4778": " cells", "4779": " transl", "4780": " neighbor", "4781": " remove", "4782": "uct", "4783": " district", "4784": " According", "4785": " worse", "4786": " concerns", "4787": " presidential", "4788": " policies", "4789": " Hall", "4790": "73", "4791": " hus", "4792": "AY", "4793": " 2006", "4794": " Jud", "4795": " independent", "4796": " Justice", "4797": "iliar", "4798": "print", "4799": "ighter", "4800": " protection", "4801": "zen", "4802": " sudden", "4803": "house", "4804": " Jes", "4805": "PR", "4806": " Inf", "4807": " bul", "4808": " _", "4809": " Service", "4810": " PR", "4811": " strategy", "4812": "ffect", "4813": " girls", "4814": " missing", "4815": "oyal", "4816": " Team", "4817": "ulated", "4818": " dat", "4819": " politics", "4820": "abor", "4821": "According", "4822": " spell", "4823": " graph", "4824": "orthern", "4825": "TC", "4826": "Ab", "4827": " labor", "4828": "isher", "4829": " kick", "4830": " iTunes", "4831": " steps", "4832": "poses", "4833": " smaller", "4834": "En", "4835": "bert", "4836": " roll", "4837": " researchers", "4838": " closed", "4839": " transport", "4840": " lawy", "4841": "________________", "4842": " Chicago", "4843": " aspect", "4844": " none", "4845": " marriage", "4846": "96", "4847": " elements", "4848": " Fre", "4849": " Sal", "4850": " dram", "4851": "FC", "4852": "top", "4853": "equ", "4854": " hearing", "4855": " supported", "4856": " testing", "4857": "cohol", "4858": " massive", "4859": " stick", "4860": " guard", "4861": "isco", "4862": "phone", "4863": "From", "4864": "However", "4865": " border", "4866": " copy", "4867": "ography", "4868": "list", "4869": "71", "4870": " owner", "4871": "class", "4872": "ruit", "4873": "rate", "4874": " Once", "4875": " digital", "4876": " task", "4877": "ERS", "4878": " incred", "4879": "tes", "4880": "++", "4881": " France", "4882": " breat", "4883": "owl", "4884": " issued", "4885": " Western", "4886": " detect", "4887": " partners", "4888": " shared", "4889": " Call", "4890": " cancer", "4891": "ache", "4892": "ribe", "4893": " explained", "4894": " heat", "4895": "{\"", "4896": " investment", "4897": " Book", "4898": " wood", "4899": " tools", "4900": " Although", "4901": " belief", "4902": " crisis", "4903": " ge", "4904": " MP", "4905": " operation", "4906": "type", "4907": "~~", "4908": "ga", "4909": " contains", "4910": "anta", "4911": " express", "4912": " Group", "4913": " Journal", "4914": "ka", "4915": " amb", "4916": " USA", "4917": " finding", "4918": " funding", "4919": "how", "4920": " established", "4921": "ideos", "4922": " degree", "4923": " dangerous", "4924": "anging", "4925": " freedom", "4926": "pport", "4927": "outhern", "4928": " church", "4929": " catch", "4930": " Two", "4931": " presence", "4932": " Guard", "4933": "Up", "4934": " authority", "4935": " Project", "4936": " button", "4937": " consequ", "4938": " valid", "4939": " weak", "4940": " starts", "4941": " reference", "4942": " Mem", "4943": "\")", "4944": "UN", "4945": "orage", "4946": " Open", "4947": " collection", "4948": "ym", "4949": "gency", "4950": " beautiful", "4951": "ros", "4952": " tells", "4953": " waiting", "4954": "nel", "4955": " providing", "4956": " Democrats", "4957": " daughter", "4958": " master", "4959": " purposes", "4960": " Japanese", "4961": " equal", "4962": " turns", "4963": " documents", "4964": " watching", "4965": "Res", "4966": " ran", "4967": "2014", "4968": " reject", "4969": " Korea", "4970": " victims", "4971": "Level", "4972": "erences", "4973": " witness", "4974": " 34", "4975": " reform", "4976": "coming", "4977": " occup", "4978": " caught", "4979": " traffic", "4980": "ading", "4981": " models", "4982": "ario", "4983": " served", "4984": " batter", "4985": "uate", "4986": " Secretary", "4987": " agreed", "4988": " truly", "4989": "ynam", "4990": " Ret", "4991": " units", "4992": " Research", "4993": "hand", "4994": "azine", "4995": " Mike", "4996": " variety", "4997": "otal", "4998": " amazing", "4999": " confirmed", "5000": " entirely", "5001": " purchase", "5002": " element", "5003": " cash", "5004": " determine", "5005": "De", "5006": " cars", "5007": " Wall", "5008": "\ufffd", "5009": " views", "5010": " drugs", "5011": " department", "5012": " Step", "5013": "uit", "5014": " 39", "5015": "asure", "5016": " Class", "5017": " covered", "5018": " Bank", "5019": " mere", "5020": "uana", "5021": " multi", "5022": " mix", "5023": " unlike", "5024": "levision", "5025": " stopped", "5026": " sem", "5027": " Gal", "5028": "ules", "5029": " wel", "5030": " Johnson", "5031": "la", "5032": " skill", "5033": " becoming", "5034": "rie", "5035": " appropriate", "5036": "fe", "5037": "ellow", "5038": " Prot", "5039": "ulate", "5040": "ocation", "5041": " weekend", "5042": "odies", "5043": " sites", "5044": " animal", "5045": " Tim", "5046": " scale", "5047": " charged", "5048": " instruct", "5049": "illa", "5050": " methods", "5051": " cert", "5052": " judge", "5053": " Hel", "5054": " dollars", "5055": " standing", "5056": " Squ", "5057": " debt", "5058": "liam", "5059": " driving", "5060": " Sum", "5061": " Edition", "5062": " album", "5063": "andon", "5064": "IF", "5065": " Uk", "5066": "63", "5067": "ader", "5068": " commercial", "5069": "esh", "5070": " Government", "5071": " discovered", "5072": " output", "5073": " Hillary", "5074": " Carol", "5075": " 2005", "5076": " abuse", "5077": "ancing", "5078": " switch", "5079": " annual", "5080": "Tw", "5081": " stated", "5082": "agement", "5083": "inner", "5084": " democr", "5085": " residents", "5086": " allowing", "5087": " factors", "5088": "odd", "5089": " fuck", "5090": "emies", "5091": " occurred", "5092": "oti", "5093": " north", "5094": " Public", "5095": " injury", "5096": " insurance", "5097": "CL", "5098": "olly", "5099": "\ufffd", "5100": " repeated", "5101": " arms", "5102": "anged", "5103": " construction", "5104": " fle", "5105": "PU", "5106": "icians", "5107": " forms", "5108": " McC", "5109": "antic", "5110": " mental", "5111": "pire", "5112": " equipment", "5113": " fant", "5114": " discussion", "5115": " regarding", "5116": "kin", "5117": "arp", "5118": " chair", "5119": "ogue", "5120": " proceed", "5121": " Id", "5122": "Our", "5123": " murder", "5124": "Man", "5125": " 49", "5126": "asp", "5127": " supply", "5128": " input", "5129": " wealth", "5130": "liament", "5131": " proced", "5132": "orial", "5133": " Stat", "5134": " NFL", "5135": "hens", "5136": " Institute", "5137": " putting", "5138": "ournament", "5139": "etic", "5140": " located", "5141": " kid", "5142": "eria", "5143": "run", "5144": " princ", "5145": " !", "5146": "going", "5147": " Bet", "5148": " clot", "5149": " telling", "5150": " proposed", "5151": "iot", "5152": "orry", "5153": " funds", "5154": "gment", "5155": " Life", "5156": " baby", "5157": " Back", "5158": " spoke", "5159": "Image", "5160": " earn", "5161": " AT", "5162": "gu", "5163": " exchange", "5164": " Lin", "5165": "oving", "5166": " pair", "5167": "More", "5168": "azon", "5169": " arrested", "5170": " killing", "5171": "can", "5172": " Card", "5173": "yd", "5174": " identified", "5175": " mobile", "5176": " thanks", "5177": "onym", "5178": " Form", "5179": " hundreds", "5180": " Chris", "5181": " Cat", "5182": " trend", "5183": "hat", "5184": " Av", "5185": "oman", "5186": " electric", "5187": " Wil", "5188": "SE", "5189": "Of", "5190": " restaur", "5191": "oted", "5192": " trig", "5193": " nine", "5194": " bomb", "5195": "Why", "5196": "\u00af", "5197": " coverage", "5198": " appeal", "5199": " Robert", "5200": " Sup", "5201": " finished", "5202": " flow", "5203": " deliver", "5204": " calcul", "5205": " photos", "5206": " phil", "5207": " pieces", "5208": " appre", "5209": "kes", "5210": " rough", "5211": "Do", "5212": " partner", "5213": " concerned", "5214": " 37", "5215": " Gen", "5216": "Col", "5217": "ctors", "5218": " =>", "5219": "state", "5220": " suggested", "5221": " Force", "5222": "CE", "5223": " herself", "5224": " Plan", "5225": "works", "5226": "ooth", "5227": "rency", "5228": " corner", "5229": " husband", "5230": " internet", "5231": " Aut", "5232": "ems", "5233": "osen", "5234": " Atl", "5235": "gen", "5236": " balance", "5237": "62", "5238": " sounds", "5239": "text", "5240": " arr", "5241": "oves", "5242": " millions", "5243": " radio", "5244": " satisf", "5245": " Dam", "5246": "Mr", "5247": "Go", "5248": "Spe", "5249": " combat", "5250": "rant", "5251": " Gree", "5252": " fuel", "5253": " distance", "5254": " tests", "5255": " decre", "5256": " Er", "5257": " managed", "5258": "DS", "5259": " tit", "5260": " measures", "5261": " Liber", "5262": " attend", "5263": "ashed", "5264": " Jose", "5265": " Night", "5266": "dit", "5267": " Nov", "5268": " End", "5269": "outs", "5270": " generation", "5271": " advoc", "5272": "yth", "5273": " conversation", "5274": " Sky", "5275": "active", "5276": "cel", "5277": "rier", "5278": " Frank", "5279": " gender", "5280": " concent", "5281": " carried", "5282": "anda", "5283": " Virgin", "5284": " arrived", "5285": "icide", "5286": "aded", "5287": " failure", "5288": " minimum", "5289": "lets", "5290": " worst", "5291": " keeping", "5292": " intended", "5293": " illegal", "5294": " subsc", "5295": " determined", "5296": " trip", "5297": "Yes", "5298": " raise", "5299": " ~", "5300": " feels", "5301": " package", "5302": " Jo", "5303": "hi", "5304": "2016", "5305": "real", "5306": " fra", "5307": " symb", "5308": "Me", "5309": "ucky", "5310": "pret", "5311": " Kh", "5312": " Edit", "5313": " Web", "5314": "emic", "5315": " Color", "5316": " justice", "5317": "Int", "5318": " farm", "5319": "cknow", "5320": "\">", "5321": "eless", "5322": " reduced", "5323": " 500", "5324": "xx", "5325": " Rad", "5326": " Wood", "5327": " clin", "5328": " hyp", "5329": "iler", "5330": "ura", "5331": "kins", "5332": "85", "5333": "61", "5334": " Their", "5335": " Mary", "5336": " san", "5337": " novel", "5338": " Who", "5339": " capacity", "5340": " impossible", "5341": " plays", "5342": " minister", "5343": "ijuana", "5344": "icate", "5345": " Set", "5346": " fram", "5347": " ing", "5348": " communities", "5349": " FBI", "5350": "ita", "5351": " bon", "5352": " strateg", "5353": " interests", "5354": "lock", "5355": "gers", "5356": "mas", "5357": " AND", "5358": " conflict", "5359": " requirements", "5360": " sac", "5361": " operating", "5362": "ini", "5363": "related", "5364": " committed", "5365": " relatively", "5366": " south", "5367": "\u00af\u00af", "5368": " afford", "5369": " identity", "5370": " decisions", "5371": " accused", "5372": "place", "5373": " victory", "5374": "och", "5375": "iat", "5376": "Name", "5377": "Com", "5378": "tion", "5379": "eds", "5380": " seek", "5381": " tight", "5382": " Images", "5383": " initi", "5384": " humans", "5385": " familiar", "5386": " audience", "5387": " internal", "5388": "venture", "5389": " sides", "5390": " TO", "5391": " dim", "5392": " conclud", "5393": " appoint", "5394": " enforcement", "5395": " Jim", "5396": " Association", "5397": " circumst", "5398": " Canadian", "5399": " joined", "5400": " differences", "5401": " Los", "5402": " protest", "5403": " twice", "5404": "win", "5405": " glass", "5406": "arsh", "5407": " Army", "5408": " expression", "5409": " decide", "5410": " planning", "5411": "ania", "5412": " handle", "5413": " Microsoft", "5414": " Nor", "5415": " maximum", "5416": " Rev", "5417": " sea", "5418": " eval", "5419": " helps", "5420": "ref", "5421": " bound", "5422": " mouth", "5423": " standards", "5424": " clim", "5425": " Camp", "5426": " Fox", "5427": "cles", "5428": " army", "5429": " Techn", "5430": "acking", "5431": "xy", "5432": "SS", "5433": " 42", "5434": " bug", "5435": " Ukrain", "5436": " Max", "5437": " Jones", "5438": " Show", "5439": "lo", "5440": " planet", "5441": " 75", "5442": " winning", "5443": " faster", "5444": " spect", "5445": " broken", "5446": "TR", "5447": " defined", "5448": " healthy", "5449": " competition", "5450": "https", "5451": " Island", "5452": " Fe", "5453": " announce", "5454": " Cup", "5455": " Instead", "5456": " client", "5457": " possibly", "5458": "section", "5459": "ocket", "5460": "look", "5461": " finish", "5462": " crew", "5463": " reserv", "5464": " editor", "5465": " hate", "5466": " sale", "5467": " controvers", "5468": " pages", "5469": "wing", "5470": " numer", "5471": " opposition", "5472": " 2004", "5473": " refuge", "5474": " flight", "5475": " apart", "5476": " Lat", "5477": "Americ", "5478": " Africa", "5479": " applications", "5480": " Palest", "5481": " Bur", "5482": " gar", "5483": " Social", "5484": " upgr", "5485": " shape", "5486": " speaking", "5487": "ansion", "5488": "ao", "5489": " Sn", "5490": " worry", "5491": " Britain", "5492": "Please", "5493": "roud", "5494": " hun", "5495": " introduced", "5496": " diet", "5497": "Ind", "5498": " Second", "5499": " functions", "5500": "uts", "5501": " Each", "5502": " Jeff", "5503": " stress", "5504": " accounts", "5505": " guarant", "5506": " Ann", "5507": "edia", "5508": " honest", "5509": " tree", "5510": " African", "5511": " Bush", "5512": "},", "5513": " sch", "5514": " Only", "5515": " fif", "5516": "igan", "5517": " exercise", "5518": " Exp", "5519": " scientists", "5520": " legislation", "5521": " Work", "5522": " Spr", "5523": "\u00c2", "5524": " Human", "5525": " \ufffd", "5526": " survey", "5527": " rich", "5528": "rip", "5529": " maintain", "5530": " flo", "5531": " leadership", "5532": "stream", "5533": " Islamic", "5534": " 01", "5535": " College", "5536": " magic", "5537": " Prime", "5538": " figures", "5539": "2017", "5540": "inder", "5541": "xual", "5542": " Dead", "5543": " absolutely", "5544": " fourth", "5545": " presented", "5546": "respond", "5547": "rible", "5548": " alcohol", "5549": "ato", "5550": " DE", "5551": "porary", "5552": " grab", "5553": " vari", "5554": " quant", "5555": " Photo", "5556": " plus", "5557": "rick", "5558": "arks", "5559": " alternative", "5560": " pil", "5561": " approx", "5562": "that", "5563": " objects", "5564": " Ro", "5565": " Android", "5566": " significantly", "5567": " Road", "5568": "kay", "5569": "Read", "5570": "avor", "5571": " acknow", "5572": " HD", "5573": " Sing", "5574": "Or", "5575": " Mont", "5576": " uns", "5577": "prof", "5578": " negoti", "5579": " Arch", "5580": "iki", "5581": " television", "5582": " Jewish", "5583": " committee", "5584": " motor", "5585": " appearance", "5586": " sitting", "5587": " strike", "5588": " Down", "5589": "comp", "5590": " Hist", "5591": " fold", "5592": "acement", "5593": " Louis", "5594": " belong", "5595": " \u2022", "5596": " mort", "5597": " prepared", "5598": " 64", "5599": " Master", "5600": " indeed", "5601": " Den", "5602": " rent", "5603": "TA", "5604": "ourney", "5605": "arc", "5606": "Su", "5607": "97", "5608": " advice", "5609": " changing", "5610": " listed", "5611": " launched", "5612": "isation", "5613": " Peter", "5614": "ishes", "5615": " lived", "5616": " Mel", "5617": " Supreme", "5618": " Federal", "5619": " );", "5620": "ructure", "5621": " sets", "5622": " philos", "5623": "uous", "5624": " \u00a0", "5625": " applied", "5626": " NOT", "5627": " housing", "5628": " Mount", "5629": " odd", "5630": " sust", "5631": "DA", "5632": "fficient", "5633": " ?", "5634": "olved", "5635": " powers", "5636": " thr", "5637": " remaining", "5638": " Water", "5639": "LC", "5640": " causes", "5641": "\u306e", "5642": " manner", "5643": "ads", "5644": " suggests", "5645": " ends", "5646": "standing", "5647": "fig", "5648": " Dun", "5649": "idth", "5650": " gay", "5651": " termin", "5652": " Angeles", "5653": "MS", "5654": " scientific", "5655": " coal", "5656": "apers", "5657": "bar", "5658": " Thomas", "5659": " sym", "5660": " Run", "5661": "this", "5662": "PC", "5663": "igrants", "5664": " minute", "5665": " District", "5666": "cellent", "5667": " leaves", "5668": " completed", "5669": "amin", "5670": " focused", "5671": " monitor", "5672": " vehicles", "5673": "MA", "5674": " Mass", "5675": " Grand", "5676": " affected", "5677": "itutional", "5678": " construct", "5679": " follows", "5680": " ton", "5681": "reens", "5682": " homes", "5683": " Ext", "5684": " Level", "5685": "rast", "5686": " Ir", "5687": " elim", "5688": " largely", "5689": " Joe", "5690": " votes", "5691": "alls", "5692": " businesses", "5693": " Foundation", "5694": " Central", "5695": " yards", "5696": " materials", "5697": "ulner", "5698": " guide", "5699": " closer", "5700": "ums", "5701": " sports", "5702": "eder", "5703": "Just", "5704": " taxes", "5705": "84", "5706": " Old", "5707": " decade", "5708": "ola", "5709": " vir", "5710": " dropped", "5711": " delay", "5712": "itect", "5713": " secure", "5714": "stein", "5715": "level", "5716": " treated", "5717": " filed", "5718": "aine", "5719": " van", "5720": " mir", "5721": " column", "5722": "icted", "5723": "eper", "5724": " rot", "5725": " consult", "5726": " entry", "5727": " marijuana", "5728": " Dou", "5729": " apparently", "5730": "oking", "5731": "clusive", "5732": " increases", "5733": "ano", "5734": " specifically", "5735": " tele", "5736": "ensions", "5737": " religion", "5738": "abilities", "5739": " frame", "5740": " Note", "5741": " Lee", "5742": " helping", "5743": " edge", "5744": "oston", "5745": " organizations", "5746": "\u00c3", "5747": " Both", "5748": "hips", "5749": " bigger", "5750": " boost", "5751": " Stand", "5752": " row", "5753": "uls", "5754": "abase", "5755": " rid", "5756": "Let", "5757": "aren", "5758": "rave", "5759": " stret", "5760": "PD", "5761": " vision", "5762": " wearing", "5763": " appreci", "5764": " award", "5765": " Use", "5766": " factor", "5767": "war", "5768": "ulations", "5769": ")(", "5770": " god", "5771": " territ", "5772": " param", "5773": "asts", "5774": "87", "5775": " enemies", "5776": " Games", "5777": "FF", "5778": " accident", "5779": "Well", "5780": " Martin", "5781": "TER", "5782": " ath", "5783": " Hell", "5784": " forg", "5785": " veter", "5786": " Medic", "5787": "free", "5788": " stars", "5789": " expensive", "5790": " acad", "5791": "rawn", "5792": " Whe", "5793": " lock", "5794": " format", "5795": " soldiers", "5796": "sm", "5797": " agent", "5798": " responsibility", "5799": "ora", "5800": " Science", "5801": " rapid", "5802": " tough", "5803": " Jesus", "5804": " believes", "5805": "ML", "5806": " wear", "5807": "lete", "5808": "\u00c3\u00c2", "5809": " Dri", "5810": " commission", "5811": " Bob", "5812": "Oh", "5813": "aped", "5814": " warm", "5815": "\u00c3\u00c2\u00c3\u00c2", "5816": " 2003", "5817": "ortion", "5818": " hasn", "5819": "uster", "5820": " univers", "5821": " Ill", "5822": " king", "5823": "ologies", "5824": "94", "5825": " Tem", "5826": " Mos", "5827": " patient", "5828": " Mexico", "5829": "cean", "5830": " Death", "5831": " Sanders", "5832": "you", "5833": " Cast", "5834": " Company", "5835": "pty", "5836": " happening", "5837": "FP", "5838": " Battle", "5839": " bought", "5840": "Am", "5841": "Mod", "5842": "Us", "5843": "uters", "5844": " Cre", "5845": " Those", "5846": " 44", "5847": "iser", "5848": " soul", "5849": " Top", "5850": " Harry", "5851": " Aw", "5852": " seat", "5853": "ffee", "5854": " revolution", "5855": " (\"", "5856": " During", "5857": "ette", "5858": " ring", "5859": " offensive", "5860": " returns", "5861": " videos", "5862": " discl", "5863": " famous", "5864": "enced", "5865": " Sign", "5866": " River", "5867": " 300", "5868": "PM", "5869": " Bus", "5870": " CH", "5871": " candidates", "5872": "arden", "5873": " percentage", "5874": " visual", "5875": " thank", "5876": " trouble", "5877": "nergy", "5878": " 2001", "5879": " prove", "5880": "ashion", "5881": " enh", "5882": " Long", "5883": "UM", "5884": " connected", "5885": " possibility", "5886": "Over", "5887": " expert", "5888": " library", "5889": "arts", "5890": " Director", "5891": " fellow", "5892": "92", "5893": "irty", "5894": " dry", "5895": " signs", "5896": " Love", "5897": " quiet", "5898": "foot", "5899": " pure", "5900": " Hun", "5901": " filled", "5902": "phas", "5903": " Elect", "5904": "endment", "5905": " Expl", "5906": " unable", "5907": "ns", "5908": "mo", "5909": " vast", "5910": "obe", "5911": " identify", "5912": "apping", "5913": " Carolina", "5914": "gress", "5915": " prote", "5916": " fish", "5917": " circumstances", "5918": "razy", "5919": " Phot", "5920": " bodies", "5921": " Mur", "5922": " developing", "5923": " AR", "5924": " experienced", "5925": " substant", "5926": " Board", "5927": "esome", "5928": " domestic", "5929": " combined", "5930": " Put", "5931": " chemical", "5932": " Child", "5933": " pool", "5934": " Cy", "5935": " egg", "5936": "cons", "5937": "sters", "5938": " hurt", "5939": " markets", "5940": " conservative", "5941": " supporters", "5942": " agencies", "5943": "idel", "5944": "Ob", "5945": "urb", "5946": " 43", "5947": " Defense", "5948": "ye", "5949": " Ap", "5950": "dule", "5951": " temperature", "5952": " conducted", "5953": " Chief", "5954": " pulled", "5955": " fol", "5956": "Last", "5957": "onto", "5958": "osis", "5959": "VER", "5960": "Des", "5961": " Pan", "5962": "First", "5963": " advance", "5964": " license", "5965": "rors", "5966": " Jon", "5967": " imagine", "5968": " hell", "5969": " fixed", "5970": " incor", "5971": "osite", "5972": " Log", "5973": "icken", "5974": "]:", "5975": " surprise", "5976": "hab", "5977": " craft", "5978": "olt", "5979": " Jul", "5980": " dial", "5981": " relevant", "5982": " entered", "5983": " leads", "5984": " AD", "5985": " Clean", "5986": " pictures", "5987": "essor", "5988": " alt", "5989": " paying", "5990": "Per", "5991": " Market", "5992": " updates", "5993": "amily", "5994": " Type", "5995": " Home", "5996": " 55", "5997": "sembly", "5998": "rome", "5999": "83", "6000": " greatest", "6001": " height", "6002": " heav", "6003": "aints", "6004": " listen", "6005": "aser", "6006": " SH", "6007": " capable", "6008": "acle", "6009": " perspect", "6010": "inating", "6011": " offering", "6012": "rypt", "6013": " Develop", "6014": "abin", "6015": "rc", "6016": " bright", "6017": "alty", "6018": "arrow", "6019": " suppl", "6020": "inding", "6021": "acked", "6022": "gypt", "6023": " Another", "6024": "pg", "6025": " Virginia", "6026": " Lu", "6027": " planned", "6028": " pit", "6029": " sweet", "6030": "Type", "6031": " Di", "6032": " typically", "6033": " Francisco", "6034": " prospect", "6035": " Dan", "6036": " teen", "6037": "rees", "6038": " sched", "6039": " hol", "6040": " scr", "6041": " lots", "6042": "life", "6043": " newsp", "6044": " forget", "6045": " None", "6046": " Middle", "6047": " Ryan", "6048": "edd", "6049": " severe", "6050": " suit", "6051": "ller", "6052": "93", "6053": " correspond", "6054": " explos", "6055": "uations", "6056": " flag", "6057": "game", "6058": "rid", "6059": " prin", "6060": " Data", "6061": " deploy", "6062": " Enter", "6063": "suit", "6064": "ghan", "6065": " Men", "6066": " thoughts", "6067": " matters", "6068": " adapt", "6069": " Ari", "6070": " fill", "6071": " forth", "6072": " sam", "6073": " 41", "6074": " payment", "6075": " Hor", "6076": " spring", "6077": "duc", "6078": " losing", "6079": " bringing", "6080": "FO", "6081": "ala", "6082": " distribution", "6083": "hered", "6084": "bour", "6085": " Israeli", "6086": "oma", "6087": " combination", "6088": " plenty", "6089": "VE", "6090": "Can", "6091": " Haw", "6092": " perman", "6093": " Special", "6094": " tow", "6095": " seeking", "6096": " examples", "6097": " classes", "6098": "cr", "6099": " beer", "6100": " moves", "6101": " IP", "6102": " Kn", "6103": " panel", "6104": "Even", "6105": " properly", "6106": " ris", "6107": " plug", "6108": " estimated", "6109": "Every", "6110": " defensive", "6111": "agraph", "6112": " pregn", "6113": " instit", "6114": " Vict", "6115": " volume", "6116": " positions", "6117": " links", "6118": " Program", "6119": " Week", "6120": "agues", "6121": " transform", "6122": "ker", "6123": " CEO", "6124": " cas", "6125": " opponent", "6126": " tweet", "6127": " Code", "6128": " shop", "6129": " fly", "6130": " talks", "6131": " bag", "6132": "Phone", "6133": " aid", "6134": " plants", "6135": " 65", "6136": " attorney", "6137": "arters", "6138": "quest", "6139": " Magic", "6140": " begins", "6141": " myster", "6142": " environmental", "6143": " storage", "6144": "NN", "6145": " marg", "6146": " ske", "6147": " metal", "6148": "elly", "6149": " ordered", "6150": " remained", "6151": " loved", "6152": " prompt", "6153": " updated", "6154": " experts", "6155": " walking", "6156": " ancient", "6157": " performed", "6158": "ATE", "6159": " neither", "6160": "iency", "6161": " manufacture", "6162": " Pak", "6163": " selected", "6164": " mine", "6165": " ultimately", "6166": " explan", "6167": " label", "6168": " Services", "6169": "ributed", "6170": "Trump", "6171": " syn", "6172": " Ult", "6173": "SC", "6174": " meat", "6175": " giant", "6176": " Wars", "6177": " ON", "6178": " adm", "6179": " interpret", "6180": " evening", "6181": " evil", "6182": " Boston", "6183": " Wild", "6184": " \ufffd", "6185": " Bitcoin", "6186": " Amazon", "6187": "Dr", "6188": " Information", "6189": " obviously", "6190": " advanced", "6191": "Photo", "6192": "olar", "6193": " weather", "6194": " symbol", "6195": " sole", "6196": " potentially", "6197": "oster", "6198": " originally", "6199": "mun", "6200": "300", "6201": "aze", "6202": "essions", "6203": " deck", "6204": " stood", "6205": " youth", "6206": " Bern", "6207": "Rep", "6208": " Test", "6209": " basically", "6210": "otic", "6211": " involve", "6212": "olit", "6213": "lyn", "6214": "See", "6215": " aircraft", "6216": " confirm", "6217": "EW", "6218": " messages", "6219": " Richard", "6220": " kit", "6221": " prohib", "6222": " vulner", "6223": "isters", "6224": " existence", "6225": " turning", "6226": " SP", "6227": " desire", "6228": " flat", "6229": " ment", "6230": "season", "6231": "anges", "6232": " neighborhood", "6233": " Lake", "6234": "ATION", "6235": " pointed", "6236": "bur", "6237": " innov", "6238": "ucks", "6239": "UL", "6240": " professor", "6241": " expressed", "6242": "AB", "6243": "icious", "6244": " 2002", "6245": " Dev", "6246": " session", "6247": " bare", "6248": "sen", "6249": " diss", "6250": " Cath", "6251": " Pass", "6252": " Point", "6253": " doctor", "6254": "orrow", "6255": "ailed", "6256": " Rub", "6257": " DC", "6258": " Charl", "6259": "person", "6260": " writer", "6261": "ighters", "6262": "ureau", "6263": " oblig", "6264": " recorded", "6265": " broke", "6266": " orders", "6267": "ilty", "6268": " motion", "6269": "inity", "6270": "law", "6271": "adium", "6272": " immigration", "6273": " contrast", "6274": " batt", "6275": " excellent", "6276": " technical", "6277": "ami", "6278": " tun", "6279": " cloud", "6280": " Year", "6281": "geon", "6282": " creation", "6283": " strange", "6284": " auth", "6285": " fort", "6286": "born", "6287": " extent", "6288": " Today", "6289": " Club", "6290": " rain", "6291": " sample", "6292": " accepted", "6293": " tact", "6294": " fired", "6295": " Son", "6296": " stands", "6297": " boot", "6298": " 47", "6299": " statements", "6300": " versions", "6301": " selling", "6302": "ounded", "6303": " 1990", "6304": " weren", "6305": " Watch", "6306": " experiment", "6307": "Post", "6308": " retail", "6309": "uled", "6310": "Inst", "6311": "unte", "6312": "\u30fc", "6313": " depart", "6314": " bond", "6315": "ivery", "6316": "ompl", "6317": " reaction", "6318": " Syrian", "6319": " Pac", "6320": "apped", "6321": "aniel", "6322": "DP", "6323": " resolution", "6324": " react", "6325": " approved", "6326": "onom", "6327": "mond", "6328": " Offic", "6329": "---", "6330": " replace", "6331": " tack", "6332": " sport", "6333": " chain", "6334": " emergency", "6335": "rad", "6336": " Palestin", "6337": " 46", "6338": " automatically", "6339": " route", "6340": " pal", "6341": " banks", "6342": " Paris", "6343": " Media", "6344": "road", "6345": "icing", "6346": "ixt", "6347": "isted", "6348": " grew", "6349": " coord", "6350": " Where", "6351": "omin", "6352": " subs", "6353": "\ufffd\ufffd", "6354": " \u00b1", "6355": " corporate", "6356": " selection", "6357": "noon", "6358": " Report", "6359": "cs", "6360": "cluding", "6361": "orders", "6362": "anche", "6363": " Its", "6364": " slowly", "6365": " Egypt", "6366": " Acc", "6367": " colle", "6368": "iques", "6369": "EX", "6370": " attempts", "6371": "url", "6372": " Cross", "6373": " findings", "6374": " SC", "6375": " OR", "6376": " index", "6377": "ensity", "6378": " Way", "6379": " Land", "6380": " shock", "6381": "dis", "6382": " dynam", "6383": " cart", "6384": "mosp", "6385": "Since", "6386": "iest", "6387": " Boy", "6388": " storm", "6389": " Contin", "6390": "2013", "6391": "hew", "6392": "ilit", "6393": " essential", "6394": "iquid", "6395": "Other", "6396": "ivered", "6397": " reasonable", "6398": "Act", "6399": " subsequ", "6400": " Pack", "6401": " Fort", "6402": " considering", "6403": " university", "6404": "log", "6405": " married", "6406": " illust", "6407": " True", "6408": "\ufffd\ufffd", "6409": " numerous", "6410": "rastructure", "6411": " seriously", "6412": " referred", "6413": "ua", "6414": " consistent", "6415": "onna", "6416": " Real", "6417": "ruption", "6418": "ciples", "6419": " facts", "6420": "91", "6421": "otes", "6422": "erg", "6423": "Then", "6424": " accompl", "6425": "Note", "6426": " revenue", "6427": " passing", "6428": " mal", "6429": "een", "6430": " Yet", "6431": " gather", "6432": "terday", "6433": "ework", "6434": " Author", "6435": "Pe", "6436": " optim", "6437": " rub", "6438": " \u88cf", "6439": " unknown", "6440": "stone", "6441": " union", "6442": "olve", "6443": " opportunities", "6444": " browser", "6445": " Wal", "6446": " Cost", "6447": " reporting", "6448": "sts", "6449": "pet", "6450": " sand", "6451": " suddenly", "6452": " surprising", "6453": " VR", "6454": " somewhat", "6455": " Bas", "6456": "ulture", "6457": "izz", "6458": " CD", "6459": " challenges", "6460": " settings", "6461": " experiences", "6462": " Full", "6463": " cann", "6464": " receiving", "6465": "EST", "6466": " joint", "6467": " cultural", "6468": " ast", "6469": "82", "6470": "astern", "6471": "ceived", "6472": " Cru", "6473": " bull", "6474": "pired", "6475": "amm", "6476": " facing", "6477": "power", "6478": " boss", "6479": " Hol", "6480": " instr", "6481": " increasingly", "6482": " shift", "6483": " streets", "6484": " Williams", "6485": "abb", "6486": " lie", "6487": " laugh", "6488": " Ca", "6489": "PL", "6490": " adults", "6491": " customer", "6492": " obtained", "6493": " supporting", "6494": "html", "6495": "fire", "6496": " detailed", "6497": " picked", "6498": " Right", "6499": "lder", "6500": "EE", "6501": "stood", "6502": " Kim", "6503": " wire", "6504": " sight", "6505": " developers", "6506": " persons", "6507": " sad", "6508": " cup", "6509": " warning", "6510": " boys", "6511": "long", "6512": " bird", "6513": "fo", "6514": " wal", "6515": " observed", "6516": " zone", "6517": "iveness", "6518": " channel", "6519": "cript", "6520": " refused", "6521": " Again", "6522": " suc", "6523": " spokesman", "6524": " Ref", "6525": "rite", "6526": "ouston", "6527": "\u30f3", "6528": " Sher", "6529": " acts", "6530": " Name", "6531": " struggle", "6532": "arry", "6533": "ometimes", "6534": " discrim", "6535": "HT", "6536": " category", "6537": " realize", "6538": " employee", "6539": " Afghan", "6540": "enger", "6541": " guns", "6542": " Steve", "6543": " Mot", "6544": " Ol", "6545": "oked", "6546": " thick", "6547": " fairly", "6548": "illy", "6549": " surve", "6550": " Mat", "6551": "weight", "6552": "\ufffd", "6553": " troops", "6554": " agents", "6555": " battery", "6556": " motiv", "6557": "\u00e1", "6558": "Sec", "6559": "den", "6560": "overy", "6561": "LS", "6562": " flu", "6563": " confident", "6564": " Oper", "6565": " empty", "6566": " phen", "6567": " sector", "6568": " excited", "6569": " remote", "6570": "aph", "6571": "oen", "6572": " destroyed", "6573": " moral", "6574": " HP", "6575": " Ron", "6576": " dress", "6577": " Bat", "6578": " lit", "6579": " MS", "6580": " af", "6581": "HL", "6582": "rum", "6583": "isms", "6584": " shouldn", "6585": " sympt", "6586": " Toronto", "6587": "hetic", "6588": " carbon", "6589": " installed", "6590": " violent", "6591": " solar", "6592": "ja", "6593": " practices", "6594": " ride", "6595": " Penn", "6596": " improved", "6597": " audio", "6598": " behavi", "6599": " PS", "6600": " eating", "6601": "Data", "6602": " Review", "6603": "pass", "6604": "claim", "6605": "uated", "6606": "angers", "6607": "chen", "6608": " properties", "6609": " anywhere", "6610": "Another", "6611": " blow", "6612": " Jackson", "6613": " proud", "6614": " plane", "6615": "lines", "6616": " square", "6617": " proof", "6618": "ansas", "6619": " talked", "6620": "makers", "6621": " sister", "6622": " holds", "6623": " resident", "6624": " ==", "6625": " resistance", "6626": " split", "6627": " prosecut", "6628": " confidence", "6629": "resents", "6630": " cuts", "6631": " exception", "6632": " zero", "6633": "Getty", "6634": " copyright", "6635": " totally", "6636": "ormal", "6637": "ifications", "6638": " Australian", "6639": " sick", "6640": " 150", "6641": " household", "6642": " fees", "6643": " drivers", "6644": "ogen", "6645": " NY", "6646": " necessarily", "6647": " regulations", "6648": "earing", "6649": "sl", "6650": " perspective", "6651": "care", "6652": "icial", "6653": "His", "6654": " escape", "6655": " surprised", "6656": " Van", "6657": "urrent", "6658": " vac", "6659": "81", "6660": " Thus", "6661": " emphas", "6662": " Champions", "6663": " Ice", "6664": " narr", "6665": " heads", "6666": " causing", "6667": "bel", "6668": "fortunately", "6669": " Ma", "6670": " targets", "6671": "cipl", "6672": " afternoon", "6673": " adds", "6674": " Maybe", "6675": " Four", "6676": "essed", "6677": "plete", "6678": " usual", "6679": "cho", "6680": "ingu", "6681": " withd", "6682": " Energy", "6683": " Econom", "6684": "OO", "6685": " articles", "6686": " injured", "6687": " manage", "6688": " explains", "6689": " diagn", "6690": "Rec", "6691": "atures", "6692": " linked", "6693": " discussed", "6694": " explo", "6695": " occasion", "6696": "athan", "6697": " opposite", "6698": " faces", "6699": " denied", "6700": " Knight", "6701": " nut", "6702": " approximately", "6703": " disappoint", "6704": "onymous", "6705": " Best", "6706": " Lo", "6707": " Hy", "6708": " Aff", "6709": " voting", "6710": "anwhile", "6711": " III", "6712": " institutions", "6713": "agram", "6714": " Daily", "6715": " drag", "6716": " nearby", "6717": " guilty", "6718": " conver", "6719": "Pre", "6720": "ship", "6721": " reward", "6722": " philosoph", "6723": " SS", "6724": "ugh", "6725": " apps", "6726": "friend", "6727": " upper", "6728": " advert", "6729": " snow", "6730": " frust", "6731": " ourselves", "6732": "Fr", "6733": " Die", "6734": "ampion", "6735": " dismiss", "6736": " cere", "6737": " signal", "6738": "from", "6739": " ).", "6740": " 52", "6741": " crimes", "6742": "itors", "6743": "estival", "6744": "useum", "6745": " council", "6746": " Saud", "6747": "May", "6748": " Gun", "6749": "ician", "6750": "ether", "6751": " sufficient", "6752": " Hen", "6753": "sole", "6754": " historical", "6755": " Far", "6756": " Turn", "6757": " pin", "6758": " succeed", "6759": "mat", "6760": "lymp", "6761": " tradition", "6762": " Ok", "6763": " cro", "6764": " description", "6765": "alle", "6766": " sky", "6767": "Te", "6768": " widely", "6769": " wave", "6770": " definition", "6771": " Jews", "6772": " cycle", "6773": " refere", "6774": " brings", "6775": "usal", "6776": " alive", "6777": " frequently", "6778": " intention", "6779": " Control", "6780": "lv", "6781": "ystem", "6782": " privacy", "6783": "gent", "6784": "rence", "6785": " Quest", "6786": " Christmas", "6787": " rail", "6788": " cooper", "6789": " tested", "6790": " Capt", "6791": "asks", "6792": " comfortable", "6793": " delivered", "6794": "scape", "6795": " depth", "6796": " GOP", "6797": " writes", "6798": " assets", "6799": " sav", "6800": "iments", "6801": " transition", "6802": " artist", "6803": " Look", "6804": " lob", "6805": " components", "6806": "arity", "6807": " walked", "6808": " root", "6809": " participants", "6810": " noticed", "6811": " resc", "6812": " nav", "6813": " Administ", "6814": "da", "6815": "utral", "6816": "plate", "6817": " importance", "6818": " assert", "6819": "iously", "6820": "cription", "6821": " injuries", "6822": " Check", "6823": " registered", "6824": " intent", "6825": " missed", "6826": "ographic", "6827": " sentence", "6828": "ounter", "6829": " assistance", "6830": "evin", "6831": " database", "6832": " buildings", "6833": " classic", "6834": " thinks", "6835": " Ohio", "6836": "Pr", "6837": "ugg", "6838": " fee", "6839": "pan", "6840": " effectively", "6841": " facility", "6842": " bear", "6843": " chapter", "6844": " dogs", "6845": " Columb", "6846": " latter", "6847": "itial", "6848": " admitted", "6849": "TV", "6850": " Georg", "6851": " posts", "6852": "\\\\", "6853": " lawyer", "6854": " equival", "6855": " mand", "6856": " controlled", "6857": " Walk", "6858": " Andrew", "6859": " menu", "6860": "amental", "6861": " protected", "6862": "va", "6863": " administr", "6864": "oral", "6865": " rein", "6866": " Sar", "6867": " amounts", "6868": " native", "6869": " Moon", "6870": " represents", "6871": " abandon", "6872": " carrying", "6873": " tank", "6874": "mary", "6875": " declared", "6876": "Tube", "6877": " hat", "6878": " punish", "6879": "ellect", "6880": "mes", "6881": " universe", "6882": " Rod", "6883": "phy", "6884": " infrastructure", "6885": " 51", "6886": " opposed", "6887": "ownt", "6888": "ca", "6889": " Make", "6890": " hardware", "6891": " coffee", "6892": "Rel", "6893": "bal", "6894": "world", "6895": " Saf", "6896": " Sea", "6897": "inals", "6898": " owned", "6899": " hall", "6900": "ersion", "6901": " describe", "6902": " Pot", "6903": " portion", "6904": " atmosp", "6905": " governments", "6906": " depending", "6907": " offense", "6908": " trick", "6909": "awa", "6910": " Line", "6911": " Vis", "6912": " Hard", "6913": " Orig", "6914": " Click", "6915": " desk", "6916": " Valley", "6917": " Sov", "6918": " movies", "6919": " remark", "6920": " mail", "6921": " conscious", "6922": " ruling", "6923": " Rights", "6924": " medic", "6925": "hent", "6926": " Women", "6927": "><", "6928": " replaced", "6929": " Prem", "6930": " Thanks", "6931": " renew", "6932": " Ball", "6933": "iform", "6934": " shots", "6935": "Comm", "6936": " armed", "6937": " constant", "6938": " taste", "6939": " realized", "6940": " buff", "6941": " mo", "6942": " efficient", "6943": "Most", "6944": "oration", "6945": "ifies", "6946": " communication", "6947": " flood", "6948": " consequences", "6949": " anyway", "6950": "igg", "6951": " GM", "6952": " Thank", "6953": " iron", "6954": " evolution", "6955": " Cop", "6956": "twitter", "6957": " 95", "6958": " relationships", "6959": "adel", "6960": " Young", "6961": " proposal", "6962": "ayers", "6963": "uilding", "6964": " Hot", "6965": "ORE", "6966": "cos", "6967": " collabor", "6968": "PG", "6969": "axy", "6970": " knowing", "6971": " supports", "6972": "owed", "6973": " controls", "6974": " merely", "6975": "umer", "6976": " athlet", "6977": " fashion", "6978": "path", "6979": " gift", "6980": " era", "6981": "AND", "6982": " kinds", "6983": " Korean", "6984": " legit", "6985": "ulous", "6986": " essentially", "6987": " therap", "6988": "nic", "6989": " suffered", "6990": " hur", "6991": " promise", "6992": " excess", "6993": " overw", "6994": " prime", "6995": " Houston", "6996": "erry", "6997": " Ms", "6998": "RS", "6999": "2012", "7000": " stores", "7001": " Olymp", "7002": " journey", "7003": "Although", "7004": "Sub", "7005": " Educ", "7006": " Chapter", "7007": " requests", "7008": " consumers", "7009": " tiny", "7010": " isol", "7011": " Fair", "7012": "ba", "7013": " YOU", "7014": " crash", "7015": "celer", "7016": " emotional", "7017": " goods", "7018": " elected", "7019": " moder", "7020": " Linux", "7021": " blocks", "7022": " island", "7023": " Society", "7024": " elections", "7025": " broadcast", "7026": " cheap", "7027": " nations", "7028": " seasons", "7029": "400", "7030": " waste", "7031": " Sat", "7032": " fields", "7033": "employ", "7034": " profile", "7035": " authors", "7036": "ALL", "7037": " Gra", "7038": "west", "7039": " Ty", "7040": " deaths", "7041": " vacc", "7042": " formed", "7043": " du", "7044": " ongoing", "7045": " Muslims", "7046": "elf", "7047": "igure", "7048": " assume", "7049": " Ukraine", "7050": "water", "7051": " coast", "7052": " voted", "7053": "gor", "7054": " AS", "7055": " Michigan", "7056": "aza", "7057": " Arm", "7058": "iro", "7059": " flex", "7060": "asters", "7061": "''", "7062": " welcome", "7063": "arl", "7064": " locations", "7065": "igation", "7066": " Fil", "7067": " buying", "7068": " architect", "7069": " harder", "7070": " Cub", "7071": " interface", "7072": " restaurant", "7073": " discover", "7074": " exceed", "7075": " favour", "7076": "gery", "7077": " duty", "7078": " pitch", "7079": "ador", "7080": " Mach", "7081": "boy", "7082": " responded", "7083": " extended", "7084": "hers", "7085": "Many", "7086": "raid", "7087": "ifer", "7088": " Ins", "7089": "Ser", "7090": " medium", "7091": "she", "7092": " Sports", "7093": " magazine", "7094": "utation", "7095": " limits", "7096": " Gall", "7097": " external", "7098": "razil", "7099": " younger", "7100": "tle", "7101": " remind", "7102": " CON", "7103": " immediate", "7104": " hidden", "7105": " volunte", "7106": " simpl", "7107": "odcast", "7108": " phase", "7109": "dr", "7110": " plot", "7111": " exposure", "7112": "RI", "7113": "ograp", "7114": "vin", "7115": "anish", "7116": " Acad", "7117": " Engine", "7118": " expansion", "7119": " Pay", "7120": "Your", "7121": " pushed", "7122": " Ell", "7123": " Head", "7124": " marketing", "7125": " AC", "7126": "ket", "7127": " hits", "7128": " gro", "7129": " Age", "7130": " Scot", "7131": "][", "7132": " stim", "7133": " iPhone", "7134": "\ufffd\ufffd", "7135": " narrow", "7136": " Getty", "7137": " Turkey", "7138": " perfectly", "7139": " enable", "7140": "utch", "7141": " precise", "7142": " regime", "7143": " shif", "7144": " compens", "7145": "gun", "7146": "div", "7147": " chosen", "7148": " Ken", "7149": "Any", "7150": " trees", "7151": " recommended", "7152": " Ren", "7153": "uable", "7154": " HT", "7155": "Follow", "7156": "EG", "7157": " Hand", "7158": " Kenn", "7159": " arguments", "7160": " exists", "7161": " bike", "7162": " Conserv", "7163": " breaking", "7164": " Gar", "7165": " crazy", "7166": " virtual", "7167": "aylor", "7168": "ixel", "7169": " 1980", "7170": " permission", "7171": " Series", "7172": " consumer", "7173": " closely", "7174": "called", "7175": " 54", "7176": " hopes", "7177": " array", "7178": " Win", "7179": " Labour", "7180": " spons", "7181": " Ire", "7182": " pow", "7183": " readers", "7184": " employment", "7185": " creature", "7186": " resulting", "7187": " accurate", "7188": " moments", "7189": " argued", "7190": " ped", "7191": "During", "7192": " 53", "7193": " Tal", "7194": " sought", "7195": " suffering", "7196": " icon", "7197": "lee", "7198": " ($", "7199": "alian", "7200": "\u00b0", "7201": " pra", "7202": " bonus", "7203": "(\"", "7204": "ko", "7205": " acting", "7206": "DE", "7207": "fall", "7208": " comparison", "7209": " smooth", "7210": " NAS", "7211": "upp", "7212": " Joseph", "7213": "eping", "7214": " Take", "7215": " Mid", "7216": " sending", "7217": "fast", "7218": " Fall", "7219": " dealing", "7220": "user", "7221": " Organ", "7222": "Co", "7223": " attached", "7224": " sees", "7225": "%.", "7226": " typical", "7227": "ART", "7228": " finds", "7229": " Asia", "7230": "umin", "7231": " Core", "7232": " Ent", "7233": "inent", "7234": "uce", "7235": " Blood", "7236": " Never", "7237": " emails", "7238": " highlight", "7239": " confront", "7240": "atus", "7241": "uted", "7242": " unus", "7243": " topic", "7244": " Adam", "7245": " ble", "7246": "ati", "7247": " understood", "7248": "Set", "7249": "struct", "7250": "TP", "7251": " mob", "7252": "aa", "7253": " Start", "7254": "pected", "7255": "sell", "7256": " dedicated", "7257": " CA", "7258": "uan", "7259": " songs", "7260": "escription", "7261": " tech", "7262": " rape", "7263": " aside", "7264": " grant", "7265": " 56", "7266": "sub", "7267": " argue", "7268": " containing", "7269": " schedule", "7270": " liberal", "7271": " publicly", "7272": " heavily", "7273": " Ut", "7274": "iner", "7275": " Section", "7276": " Care", "7277": "weet", "7278": "ls", "7279": "Dis", "7280": "\u2500", "7281": " Follow", "7282": "Back", "7283": " IT", "7284": " bes", "7285": "ji", "7286": " Hit", "7287": "ested", "7288": " everybody", "7289": " Swed", "7290": " femin", "7291": " facilities", "7292": " conven", "7293": "Comp", "7294": " OS", "7295": "core", "7296": " anx", "7297": " division", "7298": " Cam", "7299": " Stan", "7300": "mates", "7301": " explore", "7302": "plom", "7303": " shares", "7304": "pload", "7305": "anes", "7306": " ideal", "7307": "eters", "7308": " Base", "7309": " plastic", "7310": " distinct", "7311": " Network", "7312": " Seattle", "7313": " trading", "7314": "ensus", "7315": "intend", "7316": " exhib", "7317": " initially", "7318": " Food", "7319": " thousand", "7320": " Business", "7321": "acter", "7322": " paragraph", "7323": " roughly", "7324": " www", "7325": " creative", "7326": " Conf", "7327": " consumption", "7328": " films", "7329": "agan", "7330": " obtain", "7331": " tall", "7332": " tor", "7333": " acknowled", "7334": " grown", "7335": "alo", "7336": "KE", "7337": " 400", "7338": "enders", "7339": "taining", "7340": "UG", "7341": " suicide", "7342": " watched", "7343": " List", "7344": "ali", "7345": "rehens", "7346": " surrounding", "7347": " pip", "7348": " flying", "7349": " Java", "7350": "ordan", "7351": " serving", "7352": "inations", "7353": "post", "7354": " sho", "7355": "Av", "7356": " jail", "7357": "zy", "7358": " 1999", "7359": " </", "7360": " literally", "7361": " Sir", "7362": " exposed", "7363": " lies", "7364": "star", "7365": " bat", "7366": " earned", "7367": " Dig", "7368": " specified", "7369": " Season", "7370": " degrees", "7371": "Donald", "7372": " centre", "7373": " sharing", "7374": " winter", "7375": " CO", "7376": "Che", "7377": " \ufffd", "7378": "MP", "7379": " unw", "7380": " fewer", "7381": " Mir", "7382": " somewhere", "7383": " Key", "7384": " attacked", "7385": " Kir", "7386": " domain", "7387": " stronger", "7388": " 99", "7389": " penalty", "7390": "Id", "7391": "Script", "7392": " declined", "7393": " neck", "7394": " fraud", "7395": " currency", "7396": " rising", "7397": "RC", "7398": "\u2026\u2026", "7399": "Hz", "7400": " tab", "7401": " talent", "7402": "nam", "7403": " NBA", "7404": " village", "7405": " legs", "7406": " Next", "7407": "Ed", "7408": " acid", "7409": " hyd", "7410": "800", "7411": " involving", "7412": " Image", "7413": " Before", "7414": "Fl", "7415": " yesterday", "7416": "Source", "7417": " terrorist", "7418": " sup", "7419": " synt", "7420": " Saudi", "7421": " west", "7422": " ru", "7423": "burg", "7424": " visible", "7425": " struck", "7426": "rison", "7427": " awesome", "7428": " drawn", "7429": " answers", "7430": " Girl", "7431": " Ram", "7432": " threats", "7433": " defeat", "7434": "osit", "7435": " vent", "7436": "aturally", "7437": "American", "7438": "enda", "7439": " Holy", "7440": " rum", "7441": "%,", "7442": "case", "7443": " History", "7444": " YouTube", "7445": " situations", "7446": " DNA", "7447": "Ste", "7448": " saved", "7449": "Item", "7450": " recip", "7451": "ologist", "7452": " faced", "7453": " elig", "7454": "Once", "7455": " Li", "7456": "uh", "7457": " mistake", "7458": " Division", "7459": " Bell", "7460": " symptoms", "7461": "\u00ae", "7462": " domin", "7463": " falling", "7464": " ending", "7465": "ashes", "7466": " matches", "7467": " Online", "7468": " explanation", "7469": "Def", "7470": "redit", "7471": " anymore", "7472": " Total", "7473": " FOR", "7474": "ushed", "7475": " letters", "7476": " risks", "7477": " OK", "7478": " reportedly", "7479": ":\\", "7480": " plate", "7481": " subjects", "7482": " attempted", "7483": "ifier", "7484": "iana", "7485": " unlikely", "7486": " Though", "7487": "uma", "7488": " Invest", "7489": " Prin", "7490": "ican", "7491": " Dar", "7492": " Colorado", "7493": "aug", "7494": " veget", "7495": "aos", "7496": "ria", "7497": " shel", "7498": " marked", "7499": " ()", "7500": " spr", "7501": "po", "7502": " Link", "7503": " defe", "7504": " Jr", "7505": " theme", "7506": " passion", "7507": " Pen", "7508": " info", "7509": "izer", "7510": " shit", "7511": " Civil", "7512": "apse", "7513": "cre", "7514": " poly", "7515": " component", "7516": " Charles", "7517": " Ireland", "7518": " Prov", "7519": " doctors", "7520": " granted", "7521": " paint", "7522": " honor", "7523": " smoke", "7524": " payments", "7525": " primarily", "7526": " Kingdom", "7527": "rich", "7528": "atell", "7529": " deals", "7530": " scheduled", "7531": " fundamental", "7532": " protein", "7533": " newspaper", "7534": " clients", "7535": "ython", "7536": " Date", "7537": "hus", "7538": " feedback", "7539": " stretch", "7540": " cock", "7541": " hotel", "7542": " Queen", "7543": " sugar", "7544": " ju", "7545": " milk", "7546": " approval", "7547": " Live", "7548": " equivalent", "7549": "efully", "7550": " insert", "7551": "zona", "7552": " extension", "7553": "dri", "7554": "John", "7555": " accomp", "7556": "Sm", "7557": " Fund", "7558": " constantly", "7559": " ``", "7560": " generated", "7561": " Action", "7562": " Psych", "7563": " Tri", "7564": " recognize", "7565": " vary", "7566": "pha", "7567": " Ra", "7568": "df", "7569": "etch", "7570": " Soviet", "7571": "Two", "7572": " patterns", "7573": " profession", "7574": "aning", "7575": "Time", "7576": " Lim", "7577": " colors", "7578": " Az", "7579": " TR", "7580": " infect", "7581": " phenomen", "7582": " shell", "7583": "Also", "7584": " puts", "7585": " delivery", "7586": " brown", "7587": " processing", "7588": " lights", "7589": "essage", "7590": " Brook", "7591": " Aud", "7592": "lation", "7593": " industrial", "7594": "Like", "7595": " Brazil", "7596": "rous", "7597": "ESS", "7598": " Luc", "7599": " somehow", "7600": " 85", "7601": " proport", "7602": " politicians", "7603": " indicate", "7604": " hole", "7605": " techniques", "7606": " competitive", "7607": " phr", "7608": " vo", "7609": "istent", "7610": " Dream", "7611": " campus", "7612": " aspects", "7613": " helpful", "7614": " shield", "7615": "orse", "7616": " trigger", "7617": "mal", "7618": " 58", "7619": " tort", "7620": " personally", "7621": " tag", "7622": " keeps", "7623": " Video", "7624": " bench", "7625": " gap", "7626": "aire", "7627": " east", "7628": " recovery", "7629": "perial", "7630": " profit", "7631": " Mic", "7632": " 57", "7633": " colon", "7634": " strongly", "7635": "style", "7636": " allegations", "7637": "han", "7638": " reporters", "7639": "jo", "7640": "rine", "7641": "arget", "7642": "andal", "7643": " 03", "7644": " flash", "7645": "trans", "7646": " strict", "7647": " parking", "7648": " Pakistan", "7649": " li", "7650": " weird", "7651": " Eric", "7652": " regions", "7653": " Jun", "7654": " intellect", "7655": " WH", "7656": "oding", "7657": "ributes", "7658": "upid", "7659": " Tit", "7660": " finger", "7661": "oria", "7662": " elev", "7663": " Field", "7664": " conclusion", "7665": ";;", "7666": " feelings", "7667": " extensive", "7668": " mixed", "7669": " neuro", "7670": "vy", "7671": " harass", "7672": " Circ", "7673": "ouch", "7674": " territory", "7675": " successfully", "7676": "Mar", "7677": " ingred", "7678": " overwhel", "7679": " layer", "7680": "View", "7681": " allies", "7682": "illance", "7683": " Three", "7684": " bunch", "7685": " normally", "7686": " networks", "7687": " sacr", "7688": " CIA", "7689": "bles", "7690": " chose", "7691": " opponents", "7692": " regardless", "7693": " franch", "7694": " pref", "7695": " Po", "7696": " bridge", "7697": "anna", "7698": " Silver", "7699": " wage", "7700": "page", "7701": "rior", "7702": " radical", "7703": " Little", "7704": " manip", "7705": " secretary", "7706": " gang", "7707": "DR", "7708": "FA", "7709": " decent", "7710": " Spirit", "7711": " uncle", "7712": " Development", "7713": " investors", "7714": " walls", "7715": " publish", "7716": " generate", "7717": "issions", "7718": "car", "7719": " promote", "7720": " cutting", "7721": " chest", "7722": " drinking", "7723": " collected", "7724": " 72", "7725": " hoping", "7726": " embr", "7727": "gorith", "7728": " warned", "7729": " instructions", "7730": "OG", "7731": " Did", "7732": " Agency", "7733": " gear", "7734": " criticism", "7735": " Further", "7736": " util", "7737": "anny", "7738": "Red", "7739": " counsel", "7740": " Asian", "7741": " reduction", "7742": "pool", "7743": " teaching", "7744": " deeply", "7745": "iy", "7746": " estimates", "7747": " choices", "7748": " permanent", "7749": "inem", "7750": "kel", "7751": " fasc", "7752": "pse", "7753": "file", "7754": " Low", "7755": " Person", "7756": " tournament", "7757": "stal", "7758": " mel", "7759": "UST", "7760": " Ray", "7761": "azi", "7762": "Val", "7763": " contained", "7764": " Holly", "7765": " wake", "7766": " reveal", "7767": " processes", "7768": " ISIS", "7769": " 09", "7770": " blind", "7771": " steel", "7772": " Bad", "7773": " carefully", "7774": "appy", "7775": "roit", "7776": " gaming", "7777": " houses", "7778": " Coll", "7779": " truck", "7780": "erm", "7781": " scored", "7782": " occas", "7783": "return", "7784": "bound", "7785": "var", "7786": " sharp", "7787": " afraid", "7788": " EX", "7789": "amber", "7790": "cific", "7791": " scheme", "7792": "NC", "7793": " Polit", "7794": " decline", "7795": " 1998", "7796": " pushing", "7797": " possession", "7798": " privile", "7799": " teachers", "7800": " yield", "7801": "HA", "7802": " Davis", "7803": "itled", "7804": "########", "7805": " rig", "7806": " Daniel", "7807": "acon", "7808": " hide", "7809": "uten", "7810": " colleagues", "7811": " principles", "7812": " loud", "7813": " sin", "7814": " Demon", "7815": " stone", "7816": " 02", "7817": " taught", "7818": " terrible", "7819": " stuck", "7820": " Policy", "7821": "teen", "7822": " implementation", "7823": " BBC", "7824": " API", "7825": " wheel", "7826": "allas", "7827": " champions", "7828": "olars", "7829": "player", "7830": " repeatedly", "7831": " Still", "7832": " likes", "7833": "asty", "7834": "ester", "7835": " Catholic", "7836": "RL", "7837": " bath", "7838": " noise", "7839": "title", "7840": " northern", "7841": "Part", "7842": " magn", "7843": " fab", "7844": " Ash", "7845": " displ", "7846": " ticket", "7847": " murd", "7848": " alongside", "7849": " Music", "7850": " river", "7851": " Steel", "7852": " CL", "7853": " Player", "7854": " Mult", "7855": "owing", "7856": "rep", "7857": "size", "7858": " tur", "7859": " Georgia", "7860": "iscal", "7861": "raction", "7862": " cable", "7863": " 59", "7864": " wins", "7865": " upcoming", "7866": " survive", "7867": " inspired", "7868": " Education", "7869": " statistics", "7870": " Foot", "7871": "iami", "7872": " yellow", "7873": " Page", "7874": ".-", "7875": " Has", "7876": " urban", "7877": " ax", "7878": "essel", "7879": "\\\"", "7880": " quarterback", "7881": " register", "7882": " Labor", "7883": " abilities", "7884": " Family", "7885": " variable", "7886": " Price", "7887": " contem", "7888": " thin", "7889": " Equ", "7890": "data", "7891": " gotten", "7892": " constit", "7893": " asks", "7894": " tail", "7895": " exciting", "7896": " Effect", "7897": " Spanish", "7898": " encourage", "7899": "inson", "7900": " Ah", "7901": " commitment", "7902": "CS", "7903": " rally", "7904": " ::", "7905": " subsid", "7906": " spin", "7907": " captured", "7908": "2018", "7909": " innoc", "7910": " allegedly", "7911": " Come", "7912": " artists", "7913": " Number", "7914": " electronic", "7915": " regional", "7916": "apes", "7917": " wra", "7918": " myth", "7919": "prise", "7920": " Miller", "7921": " Creat", "7922": " Episode", "7923": "bell", "7924": " directed", "7925": " extract", "7926": " sorry", "7927": " vice", "7928": "agger", "7929": " Support", "7930": " 66", "7931": " Iron", "7932": " wonderful", "7933": " gra", "7934": "Net", "7935": "ione", "7936": "Eng", "7937": " ships", "7938": "ikes", "7939": " Kevin", "7940": "itar", "7941": " activists", "7942": "true", "7943": " Arizona", "7944": "enth", "7945": " Despite", "7946": " SE", "7947": " habit", "7948": "ernel", "7949": " inqu", "7950": " abortion", "7951": " void", "7952": " explicit", "7953": " engaged", "7954": " angry", "7955": " rating", "7956": " frag", "7957": "bro", "7958": "icking", "7959": "dev", "7960": " worried", "7961": " obser", "7962": " apartment", "7963": " GT", "7964": " estate", "7965": " Constitution", "7966": "emon", "7967": " Snow", "7968": " county", "7969": " disag", "7970": " Stephen", "7971": " immigrants", "7972": "wind", "7973": " Nations", "7974": " folks", "7975": "Out", "7976": " gall", "7977": " targeted", "7978": " stead", "7979": " Bon", "7980": " Lib", "7981": " informed", "7982": " 120", "7983": "chain", "7984": "idelines", "7985": "orough", "7986": " driven", "7987": " regularly", "7988": " basket", "7989": " principle", "7990": "ocument", "7991": " stun", "7992": "ibilities", "7993": " Roman", "7994": " About", "7995": " alert", "7996": " democracy", "7997": " represented", "7998": "HS", "7999": "cers", "8000": "parent", "8001": "Art", "8002": "pack", "8003": " diplom", "8004": "rets", "8005": " NO", "8006": " capture", "8007": " Adv", "8008": "\ufffd\ufffd", "8009": " announcement", "8010": " Lear", "8011": " hook", "8012": " purs", "8013": " Such", "8014": " Camer", "8015": " refugees", "8016": " Ve", "8017": "Pol", "8018": " recognized", "8019": "lib", "8020": " hadn", "8021": "Ass", "8022": " pilot", "8023": "ushing", "8024": " returning", "8025": " trail", "8026": " Stone", "8027": " routine", "8028": " courts", "8029": " desper", "8030": " friendly", "8031": " Italy", "8032": " pled", "8033": " breath", "8034": " studio", "8035": "NS", "8036": " impressive", "8037": " Afghanistan", "8038": " fing", "8039": " downt", "8040": "inking", "8041": " Rog", "8042": "iary", "8043": "color", "8044": "sex", "8045": "aron", "8046": " fault", "8047": " Nick", "8048": "Down", "8049": " Rose", "8050": " Southern", "8051": "XX", "8052": "isodes", "8053": "List", "8054": "600", "8055": " outcome", "8056": "err", "8057": " elsewhere", "8058": " retire", "8059": " pounds", "8060": " Global", "8061": "People", "8062": " communications", "8063": " loan", "8064": " ratio", "8065": " Empire", "8066": " gonna", "8067": " invent", "8068": "DF", "8069": " 1970", "8070": " Common", "8071": "pat", "8072": " promised", "8073": " dinner", "8074": " Hom", "8075": " creates", "8076": " operate", "8077": "verty", "8078": " Jordan", "8079": "etime", "8080": " sustain", "8081": "Reg", "8082": " incredible", "8083": "ima", "8084": " warrant", "8085": " mm", "8086": "Att", "8087": " lawsuit", "8088": " reviews", "8089": "iture", "8090": " Source", "8091": "lights", "8092": " Ford", "8093": " 63", "8094": "group", "8095": "store", "8096": " featured", "8097": " forever", "8098": " poverty", "8099": " Pop", "8100": " CNN", "8101": "azz", "8102": "abis", "8103": "aching", "8104": " laid", "8105": " Supp", "8106": " filter", "8107": "ena", "8108": " Community", "8109": " creatures", "8110": "uction", "8111": " Royal", "8112": " association", "8113": " Connect", "8114": " Brad", "8115": "\u2588", "8116": "lers", "8117": "there", "8118": " Gi", "8119": " valuable", "8120": "ACK", "8121": " Taylor", "8122": " liquid", "8123": " Attorney", "8124": " Carl", "8125": " Final", "8126": "aga", "8127": " Wilson", "8128": "Because", "8129": " Professor", "8130": "aka", "8131": " incredibly", "8132": "rance", "8133": "!)", "8134": "Ref", "8135": "sk", "8136": " solutions", "8137": " atmosphere", "8138": " blame", "8139": "umes", "8140": " Nob", "8141": "CA", "8142": "umps", "8143": "rical", "8144": " Putin", "8145": " Dest", "8146": "oric", "8147": " PA", "8148": " respectively", "8149": "wan", "8150": " fifth", "8151": "\u2122", "8152": " Cry", "8153": " governor", "8154": "resident", "8155": " purchased", "8156": " hack", "8157": " intense", "8158": "obs", "8159": " origin", "8160": " define", "8161": " careful", "8162": "***", "8163": " shoulder", "8164": "Click", "8165": " tied", "8166": " destruction", "8167": "oured", "8168": " nobody", "8169": " ho", "8170": " Exper", "8171": " tip", "8172": "\";", "8173": " technique", "8174": " jur", "8175": " Pok", "8176": "bow", "8177": " legend", "8178": " accord", "8179": " busy", "8180": " Intel", "8181": " hang", "8182": "aki", "8183": ".]", "8184": "\u2014\u2014\u2014\u2014", "8185": " surgery", "8186": " reprodu", "8187": " uniform", "8188": " scenes", "8189": "code", "8190": " 62", "8191": "lisher", "8192": " Have", "8193": "phia", "8194": " crypt", "8195": " recon", "8196": " scream", "8197": " adopted", "8198": " scores", "8199": "Ne", "8200": " Italian", "8201": "including", "8202": "BO", "8203": " indicated", "8204": " entertain", "8205": "Gu", "8206": "Text", "8207": "iel", "8208": " twenty", "8209": " engage", "8210": "offs", "8211": " Pacific", "8212": " smile", "8213": " personnel", "8214": " toler", "8215": " doors", "8216": " tone", "8217": " machines", "8218": " entering", "8219": "tenance", "8220": "CO", "8221": " Jersey", "8222": " forest", "8223": " horse", "8224": " complaint", "8225": " Spring", "8226": "yo", "8227": " Plus", "8228": "eding", "8229": " Return", "8230": "quarters", "8231": "ials", "8232": "cow", "8233": " academic", "8234": " fruit", "8235": " 1996", "8236": "ogether", "8237": " wine", "8238": " pursu", "8239": " Steven", "8240": " licens", "8241": "Who", "8242": " clothes", "8243": "rection", "8244": " squad", "8245": " stable", "8246": " raw", "8247": "zens", "8248": "Star", "8249": "uties", "8250": "ancer", "8251": " keys", "8252": " Mu", "8253": " complicated", "8254": "iger", "8255": " Text", "8256": " absor", "8257": " 68", "8258": " funny", "8259": " relief", "8260": " Lew", "8261": " Cook", "8262": " chart", "8263": " drawing", "8264": "GE", "8265": " module", "8266": " Bull", "8267": "ILL", "8268": " salt", "8269": "00000000", "8270": "ille", "8271": " resource", "8272": "away", "8273": "adelphia", "8274": " Bru", "8275": " 67", "8276": " somebody", "8277": " participate", "8278": " rose", "8279": "wered", "8280": " muscle", "8281": " consent", "8282": " continuing", "8283": " Guardian", "8284": " Order", "8285": "regon", "8286": " rear", "8287": " provision", "8288": " liked", "8289": "rient", "8290": " bra", "8291": "Trans", "8292": " meetings", "8293": " tox", "8294": " convent", "8295": " auto", "8296": " recording", "8297": " Soft", "8298": "001", "8299": " Roll", "8300": " programming", "8301": " pic", "8302": " proved", "8303": " stab", "8304": " Ast", "8305": " caption", "8306": "ulating", "8307": " Attack", "8308": " newly", "8309": " 1997", "8310": "fr", "8311": " discipl", "8312": " Greek", "8313": " edition", "8314": " Does", "8315": " Box", "8316": "ifle", "8317": "acket", "8318": " passes", "8319": " guest", "8320": " acceler", "8321": "itals", "8322": "UD", "8323": " authent", "8324": " Rest", "8325": "oval", "8326": "ta", "8327": "uine", "8328": " armor", "8329": " Town", "8330": " compat", "8331": " inches", "8332": "Despite", "8333": " assign", "8334": "herent", "8335": " prepare", "8336": " Meg", "8337": "ockey", "8338": " depends", "8339": " tracks", "8340": "watch", "8341": " lists", "8342": " Northern", "8343": " alter", "8344": "rec", "8345": " Eastern", "8346": " condem", "8347": " everywhere", "8348": "?'", "8349": " affili", "8350": " fought", "8351": "\":{\"", "8352": " mac", "8353": "itarian", "8354": " scope", "8355": " AL", "8356": "aws", "8357": "arms", "8358": " que", "8359": " enjoyed", "8360": "nesota", "8361": " aggressive", "8362": " Story", "8363": " IV", "8364": " recipe", "8365": " rarely", "8366": " Medical", "8367": "value", "8368": "angel", "8369": "aying", "8370": "omething", "8371": " subsection", "8372": " southern", "8373": " frequency", "8374": "rete", "8375": "rolled", "8376": "ults", "8377": " Nic", "8378": " behalf", "8379": " sequence", "8380": "abet", "8381": " controversial", "8382": " comprom", "8383": " worker", "8384": " mainly", "8385": " algorith", "8386": " Major", "8387": "orce", "8388": "gender", "8389": " organized", "8390": " fake", "8391": " concluded", "8392": " ED", "8393": " Exec", "8394": "rage", "8395": " chances", "8396": "berry", "8397": " Trad", "8398": " configuration", "8399": " withdraw", "8400": " fro", "8401": "udes", "8402": " Brother", "8403": " Brian", "8404": " tries", "8405": " samples", "8406": " bid", "8407": " Golden", "8408": " photograph", "8409": "ifest", "8410": " DO", "8411": " Parliament", "8412": "****************", "8413": "Rem", "8414": " contest", "8415": " signing", "8416": "px", "8417": " Zeal", "8418": "\u2500\u2500", "8419": "Ear", "8420": " exit", "8421": "Before", "8422": " Corpor", "8423": "null", "8424": "month", "8425": " racial", "8426": "otted", "8427": " Veg", "8428": " Reuters", "8429": " sword", "8430": "pson", "8431": " Romney", "8432": "aed", "8433": " trib", "8434": " inner", "8435": " protocol", "8436": " Bi", "8437": " Miami", "8438": "everal", "8439": "press", "8440": " shipping", "8441": " Amendment", "8442": " Howard", "8443": "connect", "8444": " Disc", "8445": " Jac", "8446": "iamond", "8447": " Therefore", "8448": "ses", "8449": " Princess", "8450": " USB", "8451": " Anth", "8452": " surveillance", "8453": " apolog", "8454": " 61", "8455": "owa", "8456": " fulf", "8457": "js", "8458": " luck", "8459": "usted", "8460": " \u00a7", "8461": "ni", "8462": " anticip", "8463": "eman", "8464": " winner", "8465": " silver", "8466": "lla", "8467": "icity", "8468": " unusual", "8469": " crack", "8470": " ties", "8471": "ez", "8472": " practical", "8473": " province", "8474": " Place", "8475": " priority", "8476": "ICE", "8477": " describes", "8478": " branch", "8479": "Form", "8480": "aska", "8481": "missions", "8482": "bi", "8483": " porn", "8484": " Turk", "8485": " enthus", "8486": " fighters", "8487": " 08", "8488": " Detroit", "8489": " foundation", "8490": "avid", "8491": "Are", "8492": " judgment", "8493": "cling", "8494": " solve", "8495": " Design", "8496": "Where", "8497": "hesis", "8498": " Tro", "8499": "after", "8500": " neutral", "8501": " Palestinian", "8502": " Hollywood", "8503": " advis", "8504": " Non", "8505": "yes", "8506": "olis", "8507": " reputation", "8508": " smell", "8509": " bread", "8510": " Bul", "8511": " Beach", "8512": " claiming", "8513": " genetic", "8514": " technologies", "8515": " upgrade", "8516": "rows", "8517": " developer", "8518": " Josh", "8519": " Disney", "8520": "erved", "8521": "ipal", "8522": " unex", "8523": " barely", "8524": "then", "8525": " Pub", "8526": " illness", "8527": "etary", "8528": " Bal", "8529": " patch", "8530": " butt", "8531": " stupid", "8532": " Dog", "8533": " Dallas", "8534": "front", "8535": "iece", "8536": " protests", "8537": " chat", "8538": "oenix", "8539": " wing", "8540": " parliament", "8541": " 77", "8542": "osexual", "8543": " render", "8544": "ptions", "8545": " Coast", "8546": "osa", "8547": " Greg", "8548": "hop", "8549": " Management", "8550": " bitcoin", "8551": " recover", "8552": " incorpor", "8553": "orne", "8554": " Using", "8555": " preced", "8556": " threatened", "8557": " spiritual", "8558": " Event", "8559": " Fred", "8560": " advertising", "8561": " improvements", "8562": " Custom", "8563": " errors", "8564": " sensitive", "8565": " Navy", "8566": " cream", "8567": "Look", "8568": " exclusive", "8569": " comprehens", "8570": " deleg", "8571": " conce", "8572": " remem", "8573": " structures", "8574": " stored", "8575": "ND", "8576": " 1000", "8577": "UP", "8578": " Budd", "8579": "AF", "8580": "woman", "8581": " Academy", "8582": "\ufffd", "8583": "sea", "8584": " temporary", "8585": "About", "8586": "esters", "8587": " tickets", "8588": " possess", "8589": "inch", "8590": "oz", "8591": " la", "8592": " contracts", "8593": " unp", "8594": " cig", "8595": " Kat", "8596": "ultural", "8597": "asm", "8598": " mountain", "8599": " Captain", "8600": "Step", "8601": "making", "8602": " Spain", "8603": " equally", "8604": " lands", "8605": "aters", "8606": " rejected", "8607": "era", "8608": "imm", "8609": "rix", "8610": "CD", "8611": " transaction", "8612": "gener", "8613": "lessly", "8614": " ||", "8615": " cos", "8616": " Henry", "8617": " provisions", "8618": " gained", "8619": " directory", "8620": " raising", "8621": " Sep", "8622": "olen", "8623": "onder", "8624": " console", "8625": "inst", "8626": " bom", "8627": " uncertain", "8628": "150", "8629": "ocking", "8630": " measured", "8631": " plain", "8632": " seats", "8633": " dict", "8634": "SL", "8635": "afe", "8636": " estimate", "8637": "izon", "8638": "athered", "8639": " contributed", "8640": " episodes", "8641": "ommod", "8642": "Gr", "8643": "ANT", "8644": " 69", "8645": "Gener", "8646": " 250", "8647": "viously", "8648": "rogen", "8649": " terrorism", "8650": " movements", "8651": "entle", "8652": "ounce", "8653": " Soul", "8654": " prev", "8655": " Table", "8656": "acts", "8657": "riors", "8658": "tab", "8659": " suffer", "8660": " nerv", "8661": " mainstream", "8662": " Wolf", "8663": " franchise", "8664": "bat", "8665": " demands", "8666": " agenda", "8667": " dozen", "8668": " clinical", "8669": "izard", "8670": " Op", "8671": "td", "8672": " visited", "8673": " Perhaps", "8674": " actor", "8675": " delic", "8676": " contribute", "8677": " inject", "8678": " Es", "8679": "acco", "8680": " listening", "8681": " congress", "8682": "ependent", "8683": " premium", "8684": " 76", "8685": " Irish", "8686": " assigned", "8687": " Phys", "8688": " worldwide", "8689": " narrative", "8690": "otype", "8691": "mont", "8692": "base", "8693": " Bowl", "8694": " Administration", "8695": " relation", "8696": " EV", "8697": "CP", "8698": " covers", "8699": " 78", "8700": " certific", "8701": " grass", "8702": " 04", "8703": "piracy", "8704": "ira", "8705": " engineering", "8706": " Mars", "8707": " unemploy", "8708": " Foreign", "8709": "stract", "8710": " ven", "8711": " steal", "8712": " replied", "8713": " ultimate", "8714": " titles", "8715": "dated", "8716": " joy", "8717": "aus", "8718": " hyper", "8719": "aku", "8720": " officially", "8721": " Product", "8722": " difficulty", "8723": "peror", "8724": " resulted", "8725": "ribed", "8726": "link", "8727": "who", "8728": "~~~~", "8729": " Speed", "8730": " Viet", "8731": "Wind", "8732": " Barack", "8733": " restrictions", "8734": " Share", "8735": " 1995", "8736": "itionally", "8737": " beauty", "8738": "opt", "8739": " maps", "8740": " CR", "8741": " Nation", "8742": " Cruz", "8743": "Will", "8744": " electricity", "8745": " org", "8746": " burd", "8747": " violation", "8748": " usage", "8749": " permit", "8750": " Chron", "8751": " Fant", "8752": " naturally", "8753": " 07", "8754": " thrown", "8755": " Awoken", "8756": " alien", "8757": " Hero", "8758": " Kent", "8759": " Rick", "8760": "rike", "8761": " pace", "8762": "},{\"", "8763": "GL", "8764": " poison", "8765": " Tower", "8766": " formal", "8767": "alysis", "8768": " genuine", "8769": " kil", "8770": "aver", "8771": " procedure", "8772": " Prop", "8773": "intendo", "8774": " Main", "8775": "asant", "8776": " trained", "8777": "Game", "8778": " Load", "8779": " MA", "8780": " crucial", "8781": " lets", "8782": " FR", "8783": " champion", "8784": "101", "8785": " Conference", "8786": " writers", "8787": " connections", "8788": " okay", "8789": "irms", "8790": " Rand", "8791": " encounter", "8792": " Buff", "8793": " achieved", "8794": " checks", "8795": "iscons", "8796": " assistant", "8797": " whenever", "8798": " Access", "8799": " Ur", "8800": "bin", "8801": " clock", "8802": "isp", "8803": "opher", "8804": " borrow", "8805": " mad", "8806": " personality", "8807": "only", "8808": "IST", "8809": "abama", "8810": " gains", "8811": " commonly", "8812": " terr", "8813": " hypot", "8814": " rely", "8815": " tiss", "8816": "isconsin", "8817": " ridic", "8818": "function", "8819": " Oregon", "8820": " uncom", "8821": "rating", "8822": "eland", "8823": " NC", "8824": " moon", "8825": "annon", "8826": " vulnerable", "8827": "utive", "8828": "\u00a0\u00a0\u00a0\u00a0", "8829": " Radio", "8830": " western", "8831": "sect", "8832": " Tony", "8833": " occurs", "8834": " Os", "8835": " Hon", "8836": "\u00ed", "8837": " vessel", "8838": " Scotland", "8839": " discrimination", "8840": " subsequent", "8841": "string", "8842": " fantasy", "8843": " Shadow", "8844": " testim", "8845": "WE", "8846": "iti", "8847": "ras", "8848": " boat", "8849": " marks", "8850": " ordinary", "8851": " ren", "8852": " representative", "8853": " petition", "8854": " 73", "8855": " adventure", "8856": " ignore", "8857": " Philadelphia", "8858": " Sav", "8859": "VP", "8860": " factory", "8861": " tasks", "8862": " depression", "8863": "zed", "8864": "................................", "8865": " Storm", "8866": " cogn", "8867": " eligible", "8868": " reducing", "8869": "via", "8870": " 05", "8871": " striking", "8872": " dollar", "8873": "ho", "8874": "OV", "8875": " instrument", "8876": " philosophy", "8877": " Moore", "8878": " Avenue", "8879": " ruled", "8880": " Front", "8881": "INE", "8882": " Mah", "8883": " scenario", "8884": " NASA", "8885": " enorm", "8886": " debut", "8887": " tea", "8888": "Today", "8889": " absence", "8890": "Sim", "8891": " ham", "8892": "leep", "8893": " tables", "8894": " Heart", "8895": "MI", "8896": "Ke", "8897": "requ", "8898": "VD", "8899": "map", "8900": " chairman", "8901": " pump", "8902": " rapidly", "8903": "vi", "8904": " substantial", "8905": "EP", "8906": "des", "8907": "chant", "8908": "ilipp", "8909": " Santa", "8910": "riers", "8911": "anchester", "8912": "Load", "8913": " Case", "8914": " saving", "8915": " 74", "8916": " AFP", "8917": "erning", "8918": "ounced", "8919": " Minnesota", "8920": " Was", "8921": " recru", "8922": " assessment", "8923": " Bron", "8924": "UE", "8925": " dynamic", "8926": " furn", "8927": "ulator", "8928": " propag", "8929": "high", "8930": " accommod", "8931": " stack", "8932": " Sus", "8933": "writ", "8934": " reven", "8935": " Godd", "8936": " Zealand", "8937": "abs", "8938": " brut", "8939": " perpet", "8940": "hot", "8941": " hardly", "8942": " Burn", "8943": "\u30b9", "8944": " sty", "8945": " transactions", "8946": " gate", "8947": " screens", "8948": " submitted", "8949": " 101", "8950": " languages", "8951": "ught", "8952": "emen", "8953": " falls", "8954": " coc", "8955": "\ufffd\ufffd", "8956": " strikes", "8957": "pa", "8958": " deliber", "8959": " IM", "8960": " relax", "8961": "annels", "8962": " Senator", "8963": " extrem", "8964": " },", "8965": " Deb", "8966": " bell", "8967": " disorder", "8968": "cut", "8969": " iOS", "8970": " locked", "8971": " emissions", "8972": " shortly", "8973": "\"]", "8974": " Judge", "8975": " Sometimes", "8976": " rival", "8977": " dust", "8978": " reaching", "8979": "File", "8980": "\u00af\u00af\u00af\u00af", "8981": "inois", "8982": " Jason", "8983": " satell", "8984": "aret", "8985": " stations", "8986": " agric", "8987": " Technology", "8988": "comes", "8989": " Unfortunately", "8990": " Children", "8991": " applies", "8992": "asted", "8993": " anger", "8994": "ailability", "8995": " Damage", "8996": " compare", "8997": " Standard", "8998": " aimed", "8999": " Ba", "9000": "anguage", "9001": " regulation", "9002": " jury", "9003": " airport", "9004": " sections", "9005": " Prince", "9006": "emed", "9007": " medicine", "9008": " hitting", "9009": " spark", "9010": "olves", "9011": " ads", "9012": "State", "9013": " foods", "9014": " replacement", "9015": " chicken", "9016": " lowest", "9017": " minds", "9018": " involves", "9019": "ui", "9020": " arrang", "9021": " procedures", "9022": " Which", "9023": "iversary", "9024": " bills", "9025": " improvement", "9026": " inev", "9027": " expectations", "9028": " intellectual", "9029": " spaces", "9030": " mechanism", "9031": "250", "9032": "break", "9033": " Ze", "9034": " Tenn", "9035": " Balt", "9036": " barrel", "9037": " static", "9038": "mann", "9039": "Police", "9040": " tips", "9041": " handling", "9042": "cus", "9043": "oded", "9044": "ilton", "9045": "iry", "9046": " journalists", "9047": "ourse", "9048": " comic", "9049": " nomine", "9050": "ITY", "9051": " versus", "9052": " loop", "9053": " surf", "9054": " Indust", "9055": " Hunter", "9056": " beliefs", "9057": "isan", "9058": " setup", "9059": " brew", "9060": "image", "9061": " computers", "9062": "fol", "9063": "},\"", "9064": " Medal", "9065": " taxp", "9066": " displayed", "9067": " grav", "9068": " fiscal", "9069": "Mon", "9070": " Moscow", "9071": " Kong", "9072": " Centre", "9073": " cameras", "9074": " Mrs", "9075": " Hay", "9076": " aver", "9077": " Kelly", "9078": "py", "9079": " requirement", "9080": " entitled", "9081": "ombie", "9082": " shadow", "9083": "agic", "9084": " Ak", "9085": " elite", "9086": " divided", "9087": " heading", "9088": " copies", "9089": " losses", "9090": " vit", "9091": "ked", "9092": " Bry", "9093": " ans", "9094": " Steam", "9095": " reporter", "9096": "heim", "9097": " Item", "9098": " superior", "9099": "don", "9100": "erent", "9101": "\u00f6", "9102": " therapy", "9103": " peak", "9104": " Model", "9105": " lying", "9106": " gam", "9107": "zer", "9108": "ritten", "9109": " responses", "9110": " consideration", "9111": " Bible", "9112": " loyal", "9113": " instant", "9114": " pm", "9115": " Forest", "9116": "\u00fc", "9117": " extend", "9118": " convicted", "9119": " founder", "9120": " convin", "9121": " Oak", "9122": "check", "9123": " scholars", "9124": "ped", "9125": " overse", "9126": "Top", "9127": "count", "9128": " Ark", "9129": "\u00b7", "9130": " 06", "9131": " LA", "9132": "md", "9133": " Latin", "9134": "imental", "9135": " CPU", "9136": " substance", "9137": " minority", "9138": " manufacturing", "9139": "Er", "9140": "ocolate", "9141": " attended", "9142": " Manager", "9143": "rations", "9144": " appreciate", "9145": "omy", "9146": "GBT", "9147": "idency", "9148": "BL", "9149": " guarantee", "9150": "position", "9151": " ocean", "9152": "clude", "9153": " headed", "9154": " tape", "9155": " loose", "9156": " logic", "9157": " proven", "9158": " spir", "9159": " admit", "9160": "isa", "9161": " investigate", "9162": " 1994", "9163": "sylv", "9164": " Lost", "9165": "cest", "9166": " 71", "9167": " requested", "9168": " windows", "9169": " Pok\u00e9", "9170": " Without", "9171": "Met", "9172": " behaviour", "9173": " reader", "9174": " hung", "9175": " Keep", "9176": " roles", "9177": " implemented", "9178": " blank", "9179": " serves", "9180": " Jay", "9181": " cited", "9182": " Friend", "9183": "profit", "9184": "apon", "9185": " repair", "9186": "item", "9187": "arrass", "9188": " critics", "9189": "adi", "9190": " Father", "9191": " shout", "9192": " fool", "9193": " 88", "9194": " producing", "9195": " lib", "9196": " rounds", "9197": " circle", "9198": " prepar", "9199": " submit", "9200": " nic", "9201": "morrow", "9202": "\u30eb", "9203": "Under", "9204": " vital", "9205": "atern", "9206": " password", "9207": " publication", "9208": " prominent", "9209": " speaks", "9210": " bars", "9211": " deeper", "9212": " Mill", "9213": "ported", "9214": " wid", "9215": " butter", "9216": " smoking", "9217": " indicates", "9218": "Key", "9219": "ropri", "9220": " File", "9221": "alling", "9222": "asting", "9223": " Rus", "9224": " adj", "9225": " 79", "9226": "aval", "9227": " presum", "9228": "burgh", "9229": "onic", "9230": " fur", "9231": " polls", "9232": "ika", "9233": " secondary", "9234": " monster", "9235": "igs", "9236": " Current", "9237": "Event", "9238": " ownership", "9239": "endar", "9240": " arrive", "9241": " Tax", "9242": " null", "9243": " Priv", "9244": " thro", "9245": " kiss", "9246": "cat", "9247": " upset", "9248": "angle", "9249": "itches", "9250": "ector", "9251": "ologists", "9252": " Galaxy", "9253": " corruption", "9254": " hint", "9255": "enter", "9256": " Hospital", "9257": " greatly", "9258": " begun", "9259": "esy", "9260": " soil", "9261": " Anton", "9262": " maintenance", "9263": "\u30e9", "9264": " dozens", "9265": " humanity", "9266": " Alabama", "9267": " rom", "9268": "worth", "9269": "aping", "9270": "sylvania", "9271": "lah", "9272": " gathered", "9273": "GA", "9274": " attacking", "9275": "found", "9276": " Square", "9277": " arbit", "9278": "ictions", "9279": " Wisconsin", "9280": " dance", "9281": " Saint", "9282": "archy", "9283": " baseball", "9284": " contributions", "9285": " literature", "9286": " exha", "9287": "perty", "9288": "test", "9289": " bab", "9290": " container", "9291": "letter", "9292": " fallen", "9293": " websites", "9294": " bottle", "9295": " Sac", "9296": " breast", "9297": " PL", "9298": " veteran", "9299": " interviews", "9300": " Ale", "9301": " banned", "9302": "engers", "9303": " Revolution", "9304": "inth", "9305": " concerning", "9306": "IVE", "9307": " expenses", "9308": " Matthew", "9309": " Columbia", "9310": "ds", "9311": "istance", "9312": " entity", "9313": "...\"", "9314": " reliable", "9315": " paralle", "9316": " Christians", "9317": " opinions", "9318": " indu", "9319": "low", "9320": " compete", "9321": " thorough", "9322": " employed", "9323": " establishment", "9324": "igen", "9325": " Cro", "9326": " lawyers", "9327": " Station", "9328": "TE", "9329": " Lind", "9330": " Pur", "9331": "itary", "9332": " efficiency", "9333": "\u2010", "9334": " Ly", "9335": " mask", "9336": " disaster", "9337": " ages", "9338": "ERE", "9339": "esis", "9340": " Hold", "9341": " casual", "9342": "bled", "9343": " enabled", "9344": " Environment", "9345": " Intelligence", "9346": "iper", "9347": " Map", "9348": " BE", "9349": " emerged", "9350": "isdom", "9351": " cabin", "9352": " registration", "9353": " fingers", "9354": " roster", "9355": " framework", "9356": " Doctor", "9357": "etts", "9358": " transportation", "9359": " awareness", "9360": "Her", "9361": " attempting", "9362": "Off", "9363": " Store", "9364": "\u00c3\u00c2\u00c3\u00c2\u00c3\u00c2\u00c3\u00c2", "9365": " Know", "9366": " defence", "9367": " scan", "9368": " Ten", "9369": " Chair", "9370": " PH", "9371": " Atlanta", "9372": " fucking", "9373": " answered", "9374": "bn", "9375": " Kar", "9376": " categories", "9377": " rational", "9378": " cust", "9379": " robot", "9380": " correctly", "9381": " gif", "9382": " graphics", "9383": "mic", "9384": " grounds", "9385": " Opp", "9386": "iate", "9387": " distributed", "9388": " sanctions", "9389": " challenging", "9390": "uto", "9391": " ingredients", "9392": " invited", "9393": " founded", "9394": " Requ", "9395": "ded", "9396": " bowl", "9397": " brothers", "9398": " Ha", "9399": "IO", "9400": " wages", "9401": "imore", "9402": "ocial", "9403": " seed", "9404": "atively", "9405": " addresses", "9406": " Iowa", "9407": "abeth", "9408": " attitude", "9409": "isd", "9410": "child", "9411": " mole", "9412": " discovery", "9413": "yard", "9414": "Br", "9415": " 82", "9416": " supplies", "9417": "elling", "9418": " distingu", "9419": "CR", "9420": " recept", "9421": " vert", "9422": " swim", "9423": "bec", "9424": "door", "9425": " Yeah", "9426": " gal", "9427": " interact", "9428": " ESP", "9429": " CS", "9430": "amps", "9431": " convinced", "9432": " objective", "9433": " dish", "9434": " Photos", "9435": "lad", "9436": " downtown", "9437": "oil", "9438": "inction", "9439": " tomorrow", "9440": " COM", "9441": " survival", "9442": "shot", "9443": " settlement", "9444": "Cons", "9445": " Xbox", "9446": "interest", "9447": " SM", "9448": "argo", "9449": "eness", "9450": " ethnic", "9451": "bered", "9452": "Min", "9453": " Tok", "9454": " incent", "9455": " Command", "9456": " maintained", "9457": " breaks", "9458": "bridge", "9459": "atar", "9460": "agg", "9461": " Finally", "9462": "unicip", "9463": " Ont", "9464": "left", "9465": " recognition", "9466": " */", "9467": " Pers", "9468": " welf", "9469": " addressed", "9470": " Kansas", "9471": " virus", "9472": " whereas", "9473": " papers", "9474": "rams", "9475": " Ministry", "9476": " pleasure", "9477": " acquired", "9478": " duration", "9479": "jpg", "9480": " calm", "9481": " NHL", "9482": " burning", "9483": " folder", "9484": "icked", "9485": " Py", "9486": " Illinois", "9487": "Class", "9488": " Goddess", "9489": " performing", "9490": " welfare", "9491": "jar", "9492": "Inter", "9493": " lin", "9494": " enhance", "9495": " notion", "9496": "fare", "9497": "ypes", "9498": " Area", "9499": " cannabis", "9500": " Diego", "9501": "fs", "9502": " Manchester", "9503": "comm", "9504": "inite", "9505": " covering", "9506": " Sound", "9507": " 1960", "9508": " 84", "9509": "elect", "9510": "zing", "9511": " citizen", "9512": " phones", "9513": " raid", "9514": " ignored", "9515": " Object", "9516": " upload", "9517": "card", "9518": " modified", "9519": " rooms", "9520": "iah", "9521": "range", "9522": "heast", "9523": "achus", "9524": " suggesting", "9525": "\u200b", "9526": "grade", "9527": "El", "9528": " clothing", "9529": " rh", "9530": " Han", "9531": "unity", "9532": "encing", "9533": " Austin", "9534": "secution", "9535": "tra", "9536": "dem", "9537": " Qual", "9538": " heaven", "9539": " stages", "9540": " wedd", "9541": "plus", "9542": "ificial", "9543": " Imm", "9544": " Ho", "9545": "ieties", "9546": " phrase", "9547": " brill", "9548": "actory", "9549": " providers", "9550": " silence", "9551": " aer", "9552": " AI", "9553": " Adventure", "9554": " platforms", "9555": " demonstrated", "9556": " interf", "9557": "ington", "9558": " races", "9559": " grade", "9560": "ultane", "9561": " Through", "9562": "false", "9563": " bow", "9564": " AB", "9565": " flavor", "9566": " historic", "9567": "gov", "9568": " colour", "9569": " viewed", "9570": " Email", "9571": "elcome", "9572": " intervention", "9573": " diversity", "9574": " periods", "9575": " reverse", "9576": " Very", "9577": " quote", "9578": " Left", "9579": "through", "9580": " screw", "9581": " landing", "9582": " pill", "9583": " wet", "9584": " protesters", "9585": " repeat", "9586": "aved", "9587": "erk", "9588": " salary", "9589": " Pennsylvania", "9590": "Still", "9591": " mayor", "9592": " kitchen", "9593": " featuring", "9594": " Museum", "9595": " Tournament", "9596": " Fal", "9597": " servers", "9598": "UC", "9599": " anybody", "9600": "img", "9601": " Trade", "9602": "ixture", "9603": "theless", "9604": " finance", "9605": " closing", "9606": " Patri", "9607": "iac", "9608": "abel", "9609": " >>", "9610": "orous", "9611": " firms", "9612": "screen", "9613": "una", "9614": " embarrass", "9615": "ulse", "9616": " letting", "9617": " threw", "9618": "iley", "9619": " channels", "9620": "lan", "9621": " Vegas", "9622": " sear", "9623": " fantastic", "9624": "arre", "9625": "uzzle", "9626": " Der", "9627": "Those", "9628": " swing", "9629": " sheet", "9630": "index", "9631": "cover", "9632": "ogan", "9633": " variables", "9634": " Tech", "9635": " spoken", "9636": "achel", "9637": " Da", "9638": " Mountain", "9639": " loaded", "9640": " footage", "9641": "version", "9642": " unl", "9643": " Phoenix", "9644": " throwing", "9645": " firing", "9646": " tracking", "9647": " width", "9648": " struggling", "9649": "rooms", "9650": "otion", "9651": " monthly", "9652": " Server", "9653": " eggs", "9654": "open", "9655": "MC", "9656": " 1993", "9657": " hired", "9658": " stayed", "9659": " Allen", "9660": " stro", "9661": " 98", "9662": "step", "9663": " Turkish", "9664": " fabric", "9665": "isting", "9666": " Dom", "9667": " dates", "9668": " pron", "9669": " basketball", "9670": " lucky", "9671": " Arabia", "9672": " assumed", "9673": "esty", "9674": " affairs", "9675": " glad", "9676": " Indeed", "9677": " FA", "9678": " Word", "9679": " joining", "9680": "ifice", "9681": "pread", "9682": "irts", "9683": " Select", "9684": " populations", "9685": "aware", "9686": " nose", "9687": " complaints", "9688": "start", "9689": " scoring", "9690": "Thanks", "9691": " mining", "9692": " visitors", "9693": "SH", "9694": " damaged", "9695": " characteristics", "9696": " Pent", "9697": "DC", "9698": " 83", "9699": " Six", "9700": "rates", "9701": " flags", "9702": " Brew", "9703": "dog", "9704": "Mark", "9705": "////", "9706": " execution", "9707": " joke", "9708": "phones", "9709": " testimony", "9710": " obst", "9711": "QL", "9712": " Cut", "9713": " studied", "9714": " Nintendo", "9715": "icket", "9716": " NBC", "9717": " lad", "9718": " Bra", "9719": " Moh", "9720": " kernel", "9721": " overwhelming", "9722": " aged", "9723": " applicable", "9724": " Cond", "9725": " roads", "9726": " Block", "9727": "made", "9728": "odge", "9729": " commands", "9730": " offices", "9731": "veland", "9732": " tut", "9733": " receiver", "9734": " Fro", "9735": " shopping", "9736": " iP", "9737": " Stre", "9738": " ABC", "9739": " entertainment", "9740": " Bow", "9741": "orted", "9742": "Mc", "9743": " reads", "9744": "grad", "9745": " Collect", "9746": " \u2212", "9747": " Capital", "9748": "ederation", "9749": " employer", "9750": " involvement", "9751": " anxiety", "9752": "alia", "9753": " roof", "9754": " Among", "9755": " Democrat", "9756": " stats", "9757": " Vill", "9758": " constitutional", "9759": " referring", "9760": "itty", "9761": " tackle", "9762": "outube", "9763": " backed", "9764": " Hong", "9765": " Broad", "9766": " ele", "9767": " Ott", "9768": " 1992", "9769": "hour", "9770": "achusetts", "9771": "Cal", "9772": " defeated", "9773": " 81", "9774": "esp", "9775": " seemingly", "9776": "was", "9777": " Jenn", "9778": " Kurd", "9779": " gene", "9780": " discount", "9781": "Ret", "9782": "ECT", "9783": "();", "9784": " clubs", "9785": " sid", "9786": " Marsh", "9787": "Check", "9788": " pp", "9789": " Eag", "9790": "idespread", "9791": " beings", "9792": "FT", "9793": " introduction", "9794": " Change", "9795": "ARD", "9796": " 110", "9797": "adows", "9798": "ierce", "9799": " meal", "9800": "author", "9801": " Bang", "9802": "lahoma", "9803": " ranks", "9804": "2011", "9805": "????", "9806": "max", "9807": " collapse", "9808": " opens", "9809": " echo", "9810": " soph", "9811": " racist", "9812": " enormous", "9813": " waves", "9814": " tap", "9815": " comprehensive", "9816": ".--", "9817": " Roy", "9818": " farmers", "9819": "Related", "9820": "aired", "9821": "rones", "9822": " Crim", "9823": " proportion", "9824": " designs", "9825": " negotiations", "9826": " virtually", "9827": " Batman", "9828": " warn", "9829": " legitimate", "9830": "mate", "9831": " convention", "9832": ",,", "9833": "netic", "9834": " SD", "9835": " consistently", "9836": " compensation", "9837": " punishment", "9838": " ye", "9839": " tie", "9840": " Bureau", "9841": "irlf", "9842": " Bu", "9843": " Aren", "9844": " Philipp", "9845": " knife", "9846": " memories", "9847": " Ross", "9848": " angle", "9849": " 86", "9850": " Thunder", "9851": " rend", "9852": " Tour", "9853": " counts", "9854": "sung", "9855": " Imp", "9856": " educational", "9857": " accessible", "9858": "COM", "9859": " drew", "9860": "yer", "9861": "Gl", "9862": "amine", "9863": "ORT", "9864": "OB", "9865": "IB", "9866": "master", "9867": " trials", "9868": "ogy", "9869": "har", "9870": " Trust", "9871": " preferred", "9872": "irlfriend", "9873": " Nev", "9874": " bin", "9875": " cow", "9876": "Page", "9877": " signature", "9878": " BL", "9879": "700", "9880": " retired", "9881": " bytes", "9882": " neighb", "9883": " Legend", "9884": " devast", "9885": " suspected", "9886": "isons", "9887": " Pok\u00e9mon", "9888": "scale", "9889": " capabilities", "9890": " revel", "9891": " cheese", "9892": "dy", "9893": "igrant", "9894": " failing", "9895": "bits", "9896": " Heroes", "9897": " Ghost", "9898": " Scient", "9899": " appointed", "9900": "uri", "9901": " institution", "9902": " expanded", "9903": "greg", "9904": " monitoring", "9905": " podcast", "9906": " coalition", "9907": " 96", "9908": "Jo", "9909": " stolen", "9910": " Sab", "9911": " stops", "9912": " holiday", "9913": " intr", "9914": "Car", "9915": "Black", "9916": " LGBT", "9917": " warming", "9918": " Anderson", "9919": " 89", "9920": " producer", "9921": "Med", "9922": " accuracy", "9923": " Marvel", "9924": "izabeth", "9925": " Patrick", "9926": "mony", "9927": " mini", "9928": "acles", "9929": " overt", "9930": "they", "9931": " membership", "9932": " Ven", "9933": " exch", "9934": " removal", "9935": " Dave", "9936": "TY", "9937": "mad", "9938": " Find", "9939": " adequ", "9940": " ec", "9941": " teeth", "9942": " emotion", "9943": " perm", "9944": " solely", "9945": "db", "9946": " extraord", "9947": "IGHT", "9948": "cal", "9949": " guidelines", "9950": " dying", "9951": " suspended", "9952": " Premier", "9953": " Anthony", "9954": "elve", "9955": " dad", "9956": " Eth", "9957": " Football", "9958": " abandoned", "9959": " <<", "9960": " march", "9961": " horror", "9962": "\u2026\"", "9963": " childhood", "9964": " campaigns", "9965": " lunch", "9966": " Albert", "9967": "block", "9968": "\u2588\u2588", "9969": "ounding", "9970": " bone", "9971": "organ", "9972": "aders", "9973": " Flash", "9974": " Drive", "9975": " tonight", "9976": " wars", "9977": " FL", "9978": " formation", "9979": "const", "9980": "News", "9981": " compe", "9982": "orious", "9983": " Staff", "9984": " discussions", "9985": " Protection", "9986": " Jam", "9987": " criteria", "9988": " installation", "9989": " accomplish", "9990": "izza", "9991": " publisher", "9992": " rescue", "9993": " Try", "9994": "ULL", "9995": " Som", "9996": " Hop", "9997": "oret", "9998": "ths", "9999": "ordon", "10000": " pocket", "10001": " Inv", "10002": "Download", "10003": " Crime", "10004": " bene", "10005": " Guide", "10006": " Assembly", "10007": " parameters", "10008": "IE", "10009": " Alexander", "10010": " concert", "10011": " Sche", "10012": " shoes", "10013": " visiting", "10014": " recall", "10015": " bub", "10016": " rural", "10017": " concrete", "10018": " Ros", "10019": "Next", "10020": "Russ", "10021": " loans", "10022": " Shield", "10023": " trem", "10024": "hemat", "10025": "kg", "10026": " Harris", "10027": "isition", "10028": " Move", "10029": " FC", "10030": " fate", "10031": " Cho", "10032": " tired", "10033": " principal", "10034": "hist", "10035": "iences", "10036": "athy", "10037": " sevent", "10038": " mood", "10039": " strategic", "10040": " diseases", "10041": " forum", "10042": " tempor", "10043": " headquarters", "10044": "Par", "10045": "ige", "10046": "flix", "10047": " guitar", "10048": " 94", "10049": "Only", "10050": " releases", "10051": "roph", "10052": "================================", "10053": " 600", "10054": " Continue", "10055": "igate", "10056": " Crit", "10057": "system", "10058": " disabled", "10059": " unexpected", "10060": "ithub", "10061": " unclear", "10062": " Est", "10063": " contrad", "10064": " strategies", "10065": "ventures", "10066": " passage", "10067": "AME", "10068": " improving", "10069": " reveals", "10070": " decrease", "10071": "ova", "10072": " annoy", "10073": " Short", "10074": " Library", "10075": " cyber", "10076": "nell", "10077": " Hur", "10078": " CB", "10079": " photograp", "10080": "UI", "10081": " sed", "10082": "Ge", "10083": " 87", "10084": " diverse", "10085": " encouraged", "10086": " conspiracy", "10087": " birds", "10088": " operator", "10089": " handful", "10090": " classified", "10091": "?)", "10092": " dramatic", "10093": " investigators", "10094": "ito", "10095": " widespread", "10096": " Room", "10097": "----------------------------------------------------------------", "10098": " collective", "10099": " journalist", "10100": "String", "10101": " temperatures", "10102": "ila", "10103": " guid", "10104": " inspect", "10105": " missile", "10106": " Mayor", "10107": " manual", "10108": " simultane", "10109": " ratings", "10110": " suck", "10111": " 97", "10112": " universal", "10113": " pharm", "10114": " disrupt", "10115": "iano", "10116": "AV", "10117": " ft", "10118": " statist", "10119": "olds", "10120": " Walker", "10121": "php", "10122": " undert", "10123": " Las", "10124": "ishop", "10125": "ntil", "10126": "reshold", "10127": " Whether", "10128": "Ms", "10129": " deny", "10130": " Cloud", "10131": " provider", "10132": " surviv", "10133": " Update", "10134": "has", "10135": " mistakes", "10136": "charge", "10137": "pled", "10138": "rity", "10139": " node", "10140": " Massachusetts", "10141": "ools", "10142": "lication", "10143": " fails", "10144": "emale", "10145": "ori", "10146": "backs", "10147": " shirt", "10148": " ''", "10149": " NAT", "10150": " waters", "10151": "elson", "10152": " ease", "10153": " scar", "10154": " contents", "10155": "mind", "10156": " contribution", "10157": " shr", "10158": " handed", "10159": " stability", "10160": " trave", "10161": "Em", "10162": " mirror", "10163": "123", "10164": " weigh", "10165": " fiction", "10166": "ouver", "10167": "istant", "10168": "rition", "10169": " Fed", "10170": " physically", "10171": " stake", "10172": " Article", "10173": " Arc", "10174": " Lewis", "10175": " Mind", "10176": " demonstrate", "10177": " profits", "10178": "vision", "10179": "omic", "10180": "olid", "10181": " battles", "10182": " drives", "10183": " eastern", "10184": " Sony", "10185": "!!!", "10186": "aration", "10187": "vard", "10188": " GL", "10189": "portation", "10190": " 92", "10191": " lawmakers", "10192": " protecting", "10193": " EPA", "10194": " yeah", "10195": " shame", "10196": "olph", "10197": "even", "10198": "xit", "10199": " attach", "10200": " representing", "10201": " obs", "10202": " Utah", "10203": "iffs", "10204": " Freedom", "10205": "\u00f3", "10206": "AK", "10207": " incidents", "10208": "itage", "10209": " viewers", "10210": "cd", "10211": " mouse", "10212": " clar", "10213": " accordance", "10214": " bot", "10215": "cor", "10216": " Summer", "10217": "held", "10218": " innocent", "10219": " initiative", "10220": "ols", "10221": "________________________________", "10222": " spots", "10223": "pace", "10224": " conventional", "10225": " corporations", "10226": " blocked", "10227": "HD", "10228": "attered", "10229": " refers", "10230": " buck", "10231": " Digital", "10232": "120", "10233": " topics", "10234": "TF", "10235": "\u0101", "10236": "brid", "10237": "reement", "10238": " underlying", "10239": " Member", "10240": " investigating", "10241": " pregnancy", "10242": " touchdown", "10243": " Band", "10244": " Caller", "10245": " instances", "10246": "PP", "10247": "wa", "10248": "Good", "10249": " 1991", "10250": " Cold", "10251": " fears", "10252": " remarks", "10253": "\ufffd\ufffd", "10254": "atal", "10255": " mit", "10256": " experiments", "10257": "ipt", "10258": "Color", "10259": "indu", "10260": "Update", "10261": " 93", "10262": "Ag", "10263": " \ufffd", "10264": "ancouver", "10265": "Both", "10266": " judges", "10267": "Object", "10268": " stere", "10269": "umbn", "10270": " participation", "10271": " Stars", "10272": " Jere", "10273": " weekly", "10274": " Ban", "10275": " conversations", "10276": " Pitt", "10277": "uz", "10278": " Indiana", "10279": " Kick", "10280": " infection", "10281": " heroes", "10282": " settled", "10283": " strip", "10284": " hal", "10285": " dump", "10286": " Sci", "10287": " les", "10288": " references", "10289": " URL", "10290": " Bridge", "10291": " wanting", "10292": "Force", "10293": " exclus", "10294": "Meanwhile", "10295": "mn", "10296": " gentle", "10297": "maker", "10298": "senal", "10299": " Gro", "10300": "ouri", "10301": " Rain", "10302": " Alliance", "10303": " lift", "10304": "ela", "10305": "SD", "10306": " Cleveland", "10307": " ranked", "10308": " stadium", "10309": " deadly", "10310": "\ufffd", "10311": " riding", "10312": "aria", "10313": " Armor", "10314": " documentation", "10315": " Greece", "10316": "reek", "10317": " lens", "10318": " Sa", "10319": " gross", "10320": " Emer", "10321": "agers", "10322": " Dub", "10323": " Rh", "10324": " AMD", "10325": " arrival", "10326": " desert", "10327": " supplement", "10328": " Resp", "10329": " knee", "10330": " margin", "10331": "font", "10332": "ogg", "10333": "2010", "10334": " Pir", "10335": " Prom", "10336": "ivals", "10337": " intake", "10338": " differently", "10339": "ugs", "10340": " bits", "10341": "cluded", "10342": " searching", "10343": " Du", "10344": "umble", "10345": " functional", "10346": " Baltimore", "10347": " Could", "10348": " desired", "10349": " circuit", "10350": " Lyn", "10351": " GO", "10352": " False", "10353": "repre", "10354": "':", "10355": "alties", "10356": " minim", "10357": " drove", "10358": " Should", "10359": " hip", "10360": " pros", "10361": " utility", "10362": " Nature", "10363": " Mode", "10364": "President", "10365": "opp", "10366": "rat", "10367": "formance", "10368": " concentration", "10369": " font", "10370": " Bud", "10371": " amid", "10372": " revers", "10373": " ML", "10374": "Bar", "10375": " interaction", "10376": " jurisd", "10377": " spells", "10378": "dep", "10379": "fil", "10380": " civilians", "10381": "utter", "10382": " Cooper", "10383": " Below", "10384": " entrance", "10385": " convert", "10386": " controversy", "10387": "owered", "10388": " contrary", "10389": " arc", "10390": " Executive", "10391": " Officer", "10392": " packages", "10393": " progressive", "10394": "width", "10395": " reserved", "10396": "vol", "10397": " Samsung", "10398": " printed", "10399": " centers", "10400": " introduce", "10401": " Kennedy", "10402": " odds", "10403": " surely", "10404": " independence", "10405": " passengers", "10406": "reprene", "10407": " Beh", "10408": " loves", "10409": " ESPN", "10410": " facilit", "10411": " identical", "10412": " doct", "10413": " partnership", "10414": "conf", "10415": " Hide", "10416": " confused", "10417": " Cow", "10418": "Men", "10419": " wrest", "10420": " Iraqi", "10421": " holes", "10422": " Studies", "10423": " pregnant", "10424": "hard", "10425": " signals", "10426": "IX", "10427": " pulling", "10428": " graduate", "10429": " nominee", "10430": "Date", "10431": " permitted", "10432": " \u20ac", "10433": " Oklahoma", "10434": "Start", "10435": " authorized", "10436": " alarm", "10437": " Cos", "10438": "van", "10439": " generations", "10440": "cular", "10441": " dragon", "10442": " Software", "10443": " Edward", "10444": " controller", "10445": "Sen", "10446": "gered", "10447": " Vik", "10448": " approached", "10449": "Thank", "10450": " cance", "10451": " formula", "10452": " Small", "10453": " weakness", "10454": " ramp", "10455": "itudes", "10456": "jud", "10457": " brilliant", "10458": " accus", "10459": "source", "10460": " 800", "10461": " Evil", "10462": "Sw", "10463": " homeless", "10464": "week", "10465": "iens", "10466": "rics", "10467": " Third", "10468": "TO", "10469": " organic", "10470": " presentation", "10471": "agh", "10472": " Download", "10473": "vation", "10474": " assembly", "10475": "orable", "10476": "holders", "10477": " Bernie", "10478": " Help", "10479": " tong", "10480": " Fight", "10481": " beach", "10482": "Book", "10483": " Lic", "10484": " rush", "10485": " Round", "10486": "oup", "10487": " Marx", "10488": " calculated", "10489": " Devil", "10490": " Sarah", "10491": " occasionally", "10492": " bullet", "10493": "Available", "10494": "gate", "10495": " 91", "10496": " hosp", "10497": " promises", "10498": " HIV", "10499": " Stadium", "10500": " Stock", "10501": " Corporation", "10502": "gage", "10503": "NG", "10504": " Credit", "10505": " sne", "10506": "ibl", "10507": " accum", "10508": "such", "10509": " terrorists", "10510": " consciousness", "10511": " Zh", "10512": " drama", "10513": "oola", "10514": "piration", "10515": " labour", "10516": " Nin", "10517": " utter", "10518": " democratic", "10519": " assass", "10520": "ilation", "10521": " gest", "10522": " abroad", "10523": " metab", "10524": " sorts", "10525": " flav", "10526": "UB", "10527": " mg", "10528": " Nothing", "10529": " Od", "10530": " musical", "10531": "2009", "10532": " drops", "10533": "ocated", "10534": "ateral", "10535": "000000", "10536": " gre", "10537": " equality", "10538": " burden", "10539": " vig", "10540": " Leader", "10541": "------------", "10542": " ceremony", "10543": " fighter", "10544": " actors", "10545": " \ufffd", "10546": "aman", "10547": "Fi", "10548": " align", "10549": "puter", "10550": " elder", "10551": " NSA", "10552": " representation", "10553": " Ontario", "10554": "ITH", "10555": "usalem", "10556": " harassment", "10557": "itzer", "10558": " symp", "10559": " boxes", "10560": " DR", "10561": " manifest", "10562": "atre", "10563": " ^", "10564": " dies", "10565": "leton", "10566": " missions", "10567": "ethe", "10568": " resolve", "10569": " followers", "10570": " asc", "10571": " km", "10572": "lord", "10573": "ammed", "10574": " silent", "10575": " Associated", "10576": " timing", "10577": " prisoners", "10578": " Kings", "10579": " Five", "10580": " tower", "10581": " approaches", "10582": " precisely", "10583": " bureau", "10584": " Mother", "10585": " Iss", "10586": " keyboard", "10587": "itual", "10588": " funded", "10589": " staying", "10590": " psychological", "10591": " mile", "10592": " Leon", "10593": " Barb", "10594": "will", "10595": " wider", "10596": " Atlantic", "10597": " till", "10598": " Rome", "10599": "rot", "10600": " accompan", "10601": " flour", "10602": "aco", "10603": "World", "10604": " Express", "10605": " Yu", "10606": "Cor", "10607": " pleased", "10608": "party", "10609": " pointing", "10610": " inflation", "10611": " roy", "10612": " ),", "10613": "ainer", "10614": " wedding", "10615": "ormon", "10616": " requiring", "10617": " qualified", "10618": " segment", "10619": "END", "10620": " sizes", "10621": "eals", "10622": " corrupt", "10623": "assador", "10624": " celeb", "10625": " dreams", "10626": " Mess", "10627": " checking", "10628": " Version", "10629": " preparing", "10630": " actively", "10631": " Diff", "10632": " lux", "10633": " Winter", "10634": "acteria", "10635": " NE", "10636": " deputy", "10637": " transgender", "10638": " summary", "10639": " inher", "10640": "eries", "10641": "char", "10642": " Yan", "10643": " knock", "10644": " Path", "10645": " lip", "10646": "roller", "10647": " impression", "10648": " celebrate", "10649": " slide", "10650": " guests", "10651": " clip", "10652": "FS", "10653": " savings", "10654": " captain", "10655": " legacy", "10656": " Denver", "10657": " wounded", "10658": "taboola", "10659": "ACT", "10660": " pursue", "10661": " oxy", "10662": " q", "10663": " semi", "10664": " Need", "10665": " Affairs", "10666": " obsc", "10667": " checked", "10668": " dual", "10669": "Code", "10670": " MD", "10671": "lem", "10672": "ulty", "10673": " \u00a9", "10674": " Elizabeth", "10675": " centuries", "10676": "arded", "10677": "src", "10678": " evident", "10679": "ennis", "10680": "atin", "10681": " unemployment", "10682": " Mario", "10683": " intim", "10684": "Christ", "10685": " biological", "10686": " soldier", "10687": " Added", "10688": " math", "10689": " Gil", "10690": " bias", "10691": " dating", "10692": " Ocean", "10693": " mice", "10694": "Mus", "10695": "hire", "10696": " Tes", "10697": "Server", "10698": "limited", "10699": "Size", "10700": " meters", "10701": " rocket", "10702": "essee", "10703": " certificate", "10704": " Iranian", "10705": "ASS", "10706": " grid", "10707": "Dec", "10708": " rolling", "10709": "commun", "10710": " Sweden", "10711": "bury", "10712": " tissue", "10713": " racism", "10714": " Local", "10715": " mystery", "10716": " examine", "10717": " stem", "10718": " sits", "10719": " hoped", "10720": "oting", "10721": " dialogue", "10722": " persu", "10723": "Watch", "10724": "lay", "10725": "MAN", "10726": " chronic", "10727": " Portland", "10728": "market", "10729": " SEC", "10730": " parallel", "10731": " scandal", "10732": " carries", "10733": " phenomenon", "10734": "human", "10735": "acker", "10736": " Ox", "10737": " retirement", "10738": "tainment", "10739": "ovie", "10740": " Gear", "10741": " duties", "10742": " dose", "10743": " scroll", "10744": "MB", "10745": "inf", "10746": " sauce", "10747": " landscape", "10748": "reddit", "10749": " Championship", "10750": " Reddit", "10751": "alid", "10752": " coin", "10753": " overs", "10754": " posting", "10755": "about", "10756": " fel", "10757": "andy", "10758": " bold", "10759": " focusing", "10760": "effect", "10761": "GR", "10762": " deemed", "10763": " recommendations", "10764": " stepped", "10765": " voter", "10766": " Deep", "10767": " Instagram", "10768": " moderate", "10769": " Maryland", "10770": " restricted", "10771": " MB", "10772": " Chall", "10773": " tob", "10774": " cir", "10775": " Occ", "10776": " Ever", "10777": " collaps", "10778": "INFO", "10779": "=-", "10780": " Pict", "10781": " Account", "10782": "nc", "10783": " ought", "10784": " export", "10785": " drunk", "10786": "('", "10787": " wise", "10788": " Mort", "10789": "necess", "10790": " ancest", "10791": " Incre", "10792": " frequent", "10793": "mir", "10794": " interpretation", "10795": " dependent", "10796": " coins", "10797": " Bol", "10798": "Video", "10799": " Justin", "10800": " fatal", "10801": " cooking", "10802": " confusion", "10803": "ipher", "10804": " custody", "10805": " Morgan", "10806": "omach", "10807": " Governor", "10808": " restaurants", "10809": "eling", "10810": " acknowledged", "10811": " ther", "10812": " genes", "10813": "ching", "10814": "Hey", "10815": " tactics", "10816": " Mexican", "10817": " vend", "10818": " hes", "10819": "quer", "10820": " noting", "10821": " Cameron", "10822": " targeting", "10823": "rock", "10824": " credits", "10825": " emotions", "10826": " representatives", "10827": "news", "10828": " legislative", "10829": " removing", "10830": " tweeted", "10831": " Carter", "10832": " Fixed", "10833": " forcing", "10834": " speaker", "10835": " males", "10836": " Vietnam", "10837": "lined", "10838": " concepts", "10839": " voices", "10840": "oir", "10841": " Trib", "10842": "Whe", "10843": " Jerusalem", "10844": " Sant", "10845": " cul", "10846": " lady", "10847": " Hawai", "10848": " arts", "10849": " Inn", "10850": " Machine", "10851": " Emperor", "10852": " slot", "10853": "gly", "10854": " Process", "10855": "III", "10856": " athletes", "10857": " Temple", "10858": " Represent", "10859": " presc", "10860": " tons", "10861": " golden", "10862": " punch", "10863": " GR", "10864": "iverpool", "10865": " enact", "10866": " lobby", "10867": " mos", "10868": " picking", "10869": " lifetime", "10870": " cognitive", "10871": "Each", "10872": "zo", "10873": " dub", "10874": " consists", "10875": "oln", "10876": " festival", "10877": "amous", "10878": " intellig", "10879": "words", "10880": " Smart", "10881": " dele", "10882": " lapt", "10883": " magical", "10884": " Sin", "10885": "bus", "10886": "urities", "10887": "ighth", "10888": " Ruby", "10889": " Sure", "10890": "olving", "10891": " jun", "10892": "OST", "10893": " imposed", "10894": " astron", "10895": " correl", "10896": " NS", "10897": " Kit", "10898": " Future", "10899": "burn", "10900": " immune", "10901": "ocus", "10902": " courses", "10903": " String", "10904": " lean", "10905": " ghost", "10906": " outcomes", "10907": " expense", "10908": " everyday", "10909": " acceptable", "10910": "Ah", "10911": " equipped", "10912": " orange", "10913": "FR", "10914": " Dutch", "10915": "Though", "10916": " Rank", "10917": "QU", "10918": " Roberts", "10919": "what", "10920": "rend", "10921": " disappear", "10922": " spawn", "10923": " Lam", "10924": "ois", "10925": " deserve", "10926": " minimal", "10927": " nervous", "10928": " Would", "10929": " rook", "10930": " Vancouver", "10931": " resign", "10932": "shire", "10933": " Works", "10934": " Build", "10935": " affordable", "10936": " Gary", "10937": " Arena", "10938": " hanging", "10939": " implications", "10940": " Song", "10941": " maintaining", "10942": " guards", "10943": "CON", "10944": " derived", "10945": " executed", "10946": " theories", "10947": " quoted", "10948": " Andre", "10949": "oga", "10950": "seless", "10951": "info", "10952": " Belg", "10953": " tears", "10954": " Surv", "10955": " birthday", "10956": "igious", "10957": "immer", "10958": " spectrum", "10959": " architecture", "10960": " recruit", "10961": "arma", "10962": "Table", "10963": " monsters", "10964": " Gov", "10965": " destination", "10966": " attractive", "10967": " foss", "10968": " Moreover", "10969": " presents", "10970": "THE", "10971": " reply", "10972": "pton", "10973": " cum", "10974": " delight", "10975": " affects", "10976": " donations", "10977": " Toy", "10978": " Him", "10979": "MENT", "10980": " overcome", "10981": "itched", "10982": " Fantasy", "10983": " Hat", "10984": " Beast", "10985": "bott", "10986": " investigations", "10987": "Run", "10988": " hunting", "10989": "di", "10990": "fund", "10991": " sessions", "10992": "estyle", "10993": " portray", "10994": "oids", "10995": "Yeah", "10996": " communicate", "10997": " comedy", "10998": " Yang", "10999": " belt", "11000": " Marine", "11001": " predicted", "11002": "Play", "11003": " importantly", "11004": " remarkable", "11005": " eliminate", "11006": "David", "11007": " bind", "11008": "VID", "11009": " advocates", "11010": " Gaza", "11011": "imp", "11012": "DB", "11013": " Na", "11014": " Similar", "11015": "IES", "11016": " charity", "11017": "vas", "11018": "math", "11019": " \ufffd", "11020": "oker", "11021": "ndum", "11022": " caps", "11023": " Hal", "11024": "2000", "11025": "ean", "11026": " fleet", "11027": " recre", "11028": "Right", "11029": " sleeping", "11030": "ijing", "11031": "kind", "11032": " designated", "11033": "\u00e4", "11034": " animation", "11035": "kee", "11036": " Introdu", "11037": " />", "11038": " delayed", "11039": " tremend", "11040": " curious", "11041": "Use", "11042": " lect", "11043": "dam", "11044": " innovation", "11045": " Points", "11046": " loading", "11047": " dispute", "11048": "ctic", "11049": "irds", "11050": " BY", "11051": " nurs", "11052": " Value", "11053": "IONS", "11054": " Hum", "11055": " template", "11056": "mers", "11057": " appearances", "11058": " Entertainment", "11059": " translation", "11060": " sake", "11061": " beneath", "11062": " inhib", "11063": " euro", "11064": "abetes", "11065": " studying", "11066": " Mas", "11067": " perceived", "11068": " examined", "11069": " eager", "11070": " coaches", "11071": " imper", "11072": "chi", "11073": " produces", "11074": "\").", "11075": " Everyone", "11076": " municip", "11077": " girlfriend", "11078": " hire", "11079": " Vice", "11080": " suitable", "11081": "opy", "11082": " inequ", "11083": " Duke", "11084": "fish", "11085": "first", "11086": " Obs", "11087": " interior", "11088": " Bruce", "11089": " Ry", "11090": " analys", "11091": " considerable", "11092": " forecast", "11093": " fert", "11094": "orship", "11095": " Drug", "11096": " ALL", "11097": ":\"", "11098": "thur", "11099": " Mail", "11100": " ballot", "11101": " instantly", "11102": " Channel", "11103": " picks", "11104": " 1989", "11105": " tent", "11106": "oli", "11107": " civilian", "11108": "bling", "11109": "ello", "11110": "bu", "11111": " inch", "11112": " logo", "11113": " cooperation", "11114": " walks", "11115": " investments", "11116": " imprison", "11117": " Festival", "11118": " Ky", "11119": " legally", "11120": " gri", "11121": "charg", "11122": "Sl", "11123": " threatening", "11124": "duction", "11125": "flow", "11126": " dismissed", "11127": "ibraries", "11128": "cap", "11129": "ele", "11130": " McG", "11131": " Harvard", "11132": " Conservative", "11133": " CBS", "11134": "png", "11135": " roots", "11136": " Having", "11137": "umbled", "11138": " Fun", "11139": "\\/", "11140": " Search", "11141": "plex", "11142": " discussing", "11143": " continu", "11144": " Tai", "11145": " Wik", "11146": "Free", "11147": "fit", "11148": " refuse", "11149": " managing", "11150": " synd", "11151": "ipedia", "11152": "walk", "11153": " professionals", "11154": " guidance", "11155": " universities", "11156": " assemb", "11157": "untu", "11158": "Finally", "11159": "ASE", "11160": " Auto", "11161": " Had", "11162": " anniversary", "11163": "LD", "11164": " Dur", "11165": " Ultimate", "11166": "ihad", "11167": "product", "11168": " transit", "11169": " restore", "11170": " explaining", "11171": " asset", "11172": " transferred", "11173": " burst", "11174": "apolis", "11175": " Magazine", "11176": " Cra", "11177": " BR", "11178": "gged", "11179": " HE", "11180": "Mich", "11181": "bet", "11182": " Lady", "11183": "ylum", "11184": "erves", "11185": " meets", "11186": "white", "11187": "Log", "11188": " corresponding", "11189": " insisted", "11190": "GG", "11191": " surrounded", "11192": " tens", "11193": " lane", "11194": " coinc", "11195": "home", "11196": " existed", "11197": "ected", "11198": " Double", "11199": "lamm", "11200": " skept", "11201": "exp", "11202": " perception", "11203": "iev", "11204": " Being", "11205": "oft", "11206": " adopt", "11207": ".:", "11208": "];", "11209": "Windows", "11210": " satellite", "11211": "ASH", "11212": " infant", "11213": "description", "11214": " Meanwhile", "11215": "cm", "11216": "oca", "11217": " Treat", "11218": "actor", "11219": " tobacco", "11220": " Norm", "11221": "emption", "11222": " flesh", "11223": " je", "11224": "oop", "11225": " Heaven", "11226": " beating", "11227": "anim", "11228": " gathering", "11229": " cultiv", "11230": "GO", "11231": "abe", "11232": " Jonathan", "11233": " Safety", "11234": " badly", "11235": "prot", "11236": " choosing", "11237": " contacted", "11238": " quit", "11239": " distur", "11240": " stir", "11241": " token", "11242": "Det", "11243": " Pa", "11244": " functionality", "11245": "003", "11246": "some", "11247": " limitations", "11248": " meth", "11249": "build", "11250": "config", "11251": "NT", "11252": "rell", "11253": "blem", "11254": " Mom", "11255": " veterans", "11256": " Hu", "11257": " trends", "11258": "arer", "11259": " Given", "11260": " Caption", "11261": "may", "11262": "AST", "11263": " wondering", "11264": " Clark", "11265": "normal", "11266": " separated", "11267": " desp", "11268": "stic", "11269": "brew", "11270": " relating", "11271": " Nik", "11272": " Farm", "11273": " enthusi", "11274": "good", "11275": "deb", "11276": " activist", "11277": " mart", "11278": " explosion", "11279": " Economic", "11280": "Link", "11281": " insight", "11282": " convenient", "11283": " counterpart", "11284": "support", "11285": " Virt", "11286": "agen", "11287": " Tennessee", "11288": " Simon", "11289": " Award", "11290": "OCK", "11291": " Figure", "11292": " overseas", "11293": " pride", "11294": " Cas", "11295": "note", "11296": "mg", "11297": "Current", "11298": " displays", "11299": "content", "11300": " traveling", "11301": " hospitals", "11302": " Financial", "11303": " Past", "11304": " defendant", "11305": " streaming", "11306": "mble", "11307": " Berlin", "11308": "uki", "11309": " distribut", "11310": " antib", "11311": " chocolate", "11312": " Castle", "11313": " interrupt", "11314": " Row", "11315": " conversion", "11316": " bugs", "11317": " Rather", "11318": "liest", "11319": "LY", "11320": " Jean", "11321": "common", "11322": "akh", "11323": " 130", "11324": "otton", "11325": " Dean", "11326": " amendment", "11327": " gameplay", "11328": " Warren", "11329": "oda", "11330": " highlights", "11331": " irre", "11332": " NATO", "11333": " balls", "11334": " demanding", "11335": "URE", "11336": " Luke", "11337": "Figure", "11338": "stop", "11339": "onia", "11340": "zone", "11341": "izers", "11342": " WR", "11343": " awarded", "11344": " regulatory", "11345": " Hart",
[...]
